#ifndef MODEL5_H
#define MODEL5_H


unsigned int model5_len = 32088;
unsigned char model5[] = {
 0x1c, 0x00, 0x00, 0x00, 0x54, 0x46, 0x4c, 0x33, 0x14, 0x00, 0x20, 0x00,
  0x1c, 0x00, 0x18, 0x00, 0x14, 0x00, 0x10, 0x00, 0x0c, 0x00, 0x00, 0x00,
  0x08, 0x00, 0x04, 0x00, 0x14, 0x00, 0x00, 0x00, 0x1c, 0x00, 0x00, 0x00,
  0x88, 0x00, 0x00, 0x00, 0xe0, 0x00, 0x00, 0x00, 0x18, 0x19, 0x00, 0x00,
  0x28, 0x19, 0x00, 0x00, 0x58, 0x7c, 0x00, 0x00, 0x03, 0x00, 0x00, 0x00,
  0x01, 0x00, 0x00, 0x00, 0x04, 0x00, 0x00, 0x00, 0xce, 0xcd, 0xff, 0xff,
  0x0c, 0x00, 0x00, 0x00, 0x1c, 0x00, 0x00, 0x00, 0x3c, 0x00, 0x00, 0x00,
  0x0f, 0x00, 0x00, 0x00, 0x73, 0x65, 0x72, 0x76, 0x69, 0x6e, 0x67, 0x5f,
  0x64, 0x65, 0x66, 0x61, 0x75, 0x6c, 0x74, 0x00, 0x01, 0x00, 0x00, 0x00,
  0x04, 0x00, 0x00, 0x00, 0x94, 0xff, 0xff, 0xff, 0xb6, 0x00, 0x00, 0x00,
  0x04, 0x00, 0x00, 0x00, 0x08, 0x00, 0x00, 0x00, 0x64, 0x65, 0x6e, 0x73,
  0x65, 0x5f, 0x32, 0x30, 0x00, 0x00, 0x00, 0x00, 0x01, 0x00, 0x00, 0x00,
  0x04, 0x00, 0x00, 0x00, 0x5e, 0xce, 0xff, 0xff, 0x04, 0x00, 0x00, 0x00,
  0x08, 0x00, 0x00, 0x00, 0x69, 0x6e, 0x70, 0x75, 0x74, 0x5f, 0x31, 0x30,
  0x00, 0x00, 0x00, 0x00, 0x02, 0x00, 0x00, 0x00, 0x34, 0x00, 0x00, 0x00,
  0x04, 0x00, 0x00, 0x00, 0xdc, 0xff, 0xff, 0xff, 0xb9, 0x00, 0x00, 0x00,
  0x04, 0x00, 0x00, 0x00, 0x13, 0x00, 0x00, 0x00, 0x43, 0x4f, 0x4e, 0x56,
  0x45, 0x52, 0x53, 0x49, 0x4f, 0x4e, 0x5f, 0x4d, 0x45, 0x54, 0x41, 0x44,
  0x41, 0x54, 0x41, 0x00, 0x08, 0x00, 0x0c, 0x00, 0x08, 0x00, 0x04, 0x00,
  0x08, 0x00, 0x00, 0x00, 0xb8, 0x00, 0x00, 0x00, 0x04, 0x00, 0x00, 0x00,
  0x13, 0x00, 0x00, 0x00, 0x6d, 0x69, 0x6e, 0x5f, 0x72, 0x75, 0x6e, 0x74,
  0x69, 0x6d, 0x65, 0x5f, 0x76, 0x65, 0x72, 0x73, 0x69, 0x6f, 0x6e, 0x00,
  0xba, 0x00, 0x00, 0x00, 0x34, 0x18, 0x00, 0x00, 0x2c, 0x18, 0x00, 0x00,
  0x5c, 0x17, 0x00, 0x00, 0x48, 0x17, 0x00, 0x00, 0x18, 0x17, 0x00, 0x00,
  0x04, 0x17, 0x00, 0x00, 0xf0, 0x16, 0x00, 0x00, 0xd4, 0x16, 0x00, 0x00,
  0xc0, 0x16, 0x00, 0x00, 0xb8, 0x16, 0x00, 0x00, 0xb0, 0x16, 0x00, 0x00,
  0xa0, 0x0d, 0x00, 0x00, 0x90, 0x07, 0x00, 0x00, 0x00, 0x06, 0x00, 0x00,
  0xd0, 0x05, 0x00, 0x00, 0xc8, 0x05, 0x00, 0x00, 0xc0, 0x05, 0x00, 0x00,
  0xb8, 0x05, 0x00, 0x00, 0xb0, 0x05, 0x00, 0x00, 0xa8, 0x05, 0x00, 0x00,
  0xa0, 0x05, 0x00, 0x00, 0x98, 0x05, 0x00, 0x00, 0x90, 0x05, 0x00, 0x00,
  0x88, 0x05, 0x00, 0x00, 0x80, 0x05, 0x00, 0x00, 0x78, 0x05, 0x00, 0x00,
  0x70, 0x05, 0x00, 0x00, 0x68, 0x05, 0x00, 0x00, 0x60, 0x05, 0x00, 0x00,
  0x58, 0x05, 0x00, 0x00, 0x50, 0x05, 0x00, 0x00, 0x48, 0x05, 0x00, 0x00,
  0x40, 0x05, 0x00, 0x00, 0x38, 0x05, 0x00, 0x00, 0x30, 0x05, 0x00, 0x00,
  0x28, 0x05, 0x00, 0x00, 0x20, 0x05, 0x00, 0x00, 0x18, 0x05, 0x00, 0x00,
  0x10, 0x05, 0x00, 0x00, 0x08, 0x05, 0x00, 0x00, 0x00, 0x05, 0x00, 0x00,
  0xf8, 0x04, 0x00, 0x00, 0xf0, 0x04, 0x00, 0x00, 0xe8, 0x04, 0x00, 0x00,
  0xe0, 0x04, 0x00, 0x00, 0xd8, 0x04, 0x00, 0x00, 0xd0, 0x04, 0x00, 0x00,
  0xc8, 0x04, 0x00, 0x00, 0xc0, 0x04, 0x00, 0x00, 0xb8, 0x04, 0x00, 0x00,
  0xb0, 0x04, 0x00, 0x00, 0xa8, 0x04, 0x00, 0x00, 0xa0, 0x04, 0x00, 0x00,
  0x98, 0x04, 0x00, 0x00, 0x90, 0x04, 0x00, 0x00, 0x88, 0x04, 0x00, 0x00,
  0x80, 0x04, 0x00, 0x00, 0x78, 0x04, 0x00, 0x00, 0x70, 0x04, 0x00, 0x00,
  0x68, 0x04, 0x00, 0x00, 0x60, 0x04, 0x00, 0x00, 0x58, 0x04, 0x00, 0x00,
  0x50, 0x04, 0x00, 0x00, 0x48, 0x04, 0x00, 0x00, 0x40, 0x04, 0x00, 0x00,
  0x38, 0x04, 0x00, 0x00, 0x30, 0x04, 0x00, 0x00, 0x28, 0x04, 0x00, 0x00,
  0x20, 0x04, 0x00, 0x00, 0x18, 0x04, 0x00, 0x00, 0x10, 0x04, 0x00, 0x00,
  0x08, 0x04, 0x00, 0x00, 0x00, 0x04, 0x00, 0x00, 0xf8, 0x03, 0x00, 0x00,
  0xf0, 0x03, 0x00, 0x00, 0xe8, 0x03, 0x00, 0x00, 0xe0, 0x03, 0x00, 0x00,
  0xd8, 0x03, 0x00, 0x00, 0xd0, 0x03, 0x00, 0x00, 0xc8, 0x03, 0x00, 0x00,
  0xc0, 0x03, 0x00, 0x00, 0xb8, 0x03, 0x00, 0x00, 0xb0, 0x03, 0x00, 0x00,
  0xa8, 0x03, 0x00, 0x00, 0xa0, 0x03, 0x00, 0x00, 0x98, 0x03, 0x00, 0x00,
  0x90, 0x03, 0x00, 0x00, 0x88, 0x03, 0x00, 0x00, 0x80, 0x03, 0x00, 0x00,
  0x78, 0x03, 0x00, 0x00, 0x70, 0x03, 0x00, 0x00, 0x68, 0x03, 0x00, 0x00,
  0x60, 0x03, 0x00, 0x00, 0x58, 0x03, 0x00, 0x00, 0x50, 0x03, 0x00, 0x00,
  0x48, 0x03, 0x00, 0x00, 0x40, 0x03, 0x00, 0x00, 0x38, 0x03, 0x00, 0x00,
  0x30, 0x03, 0x00, 0x00, 0x28, 0x03, 0x00, 0x00, 0x20, 0x03, 0x00, 0x00,
  0x18, 0x03, 0x00, 0x00, 0x10, 0x03, 0x00, 0x00, 0x08, 0x03, 0x00, 0x00,
  0x00, 0x03, 0x00, 0x00, 0xf8, 0x02, 0x00, 0x00, 0xf0, 0x02, 0x00, 0x00,
  0xe8, 0x02, 0x00, 0x00, 0xe0, 0x02, 0x00, 0x00, 0xd8, 0x02, 0x00, 0x00,
  0xd0, 0x02, 0x00, 0x00, 0xc8, 0x02, 0x00, 0x00, 0xc0, 0x02, 0x00, 0x00,
  0xb8, 0x02, 0x00, 0x00, 0xb0, 0x02, 0x00, 0x00, 0xa8, 0x02, 0x00, 0x00,
  0xa0, 0x02, 0x00, 0x00, 0x98, 0x02, 0x00, 0x00, 0x90, 0x02, 0x00, 0x00,
  0x88, 0x02, 0x00, 0x00, 0x80, 0x02, 0x00, 0x00, 0x78, 0x02, 0x00, 0x00,
  0x70, 0x02, 0x00, 0x00, 0x68, 0x02, 0x00, 0x00, 0x60, 0x02, 0x00, 0x00,
  0x58, 0x02, 0x00, 0x00, 0x50, 0x02, 0x00, 0x00, 0x48, 0x02, 0x00, 0x00,
  0x40, 0x02, 0x00, 0x00, 0x38, 0x02, 0x00, 0x00, 0x30, 0x02, 0x00, 0x00,
  0x28, 0x02, 0x00, 0x00, 0x20, 0x02, 0x00, 0x00, 0x18, 0x02, 0x00, 0x00,
  0x10, 0x02, 0x00, 0x00, 0x08, 0x02, 0x00, 0x00, 0x00, 0x02, 0x00, 0x00,
  0xf8, 0x01, 0x00, 0x00, 0xf0, 0x01, 0x00, 0x00, 0xe8, 0x01, 0x00, 0x00,
  0xe0, 0x01, 0x00, 0x00, 0xd8, 0x01, 0x00, 0x00, 0xd0, 0x01, 0x00, 0x00,
  0xc8, 0x01, 0x00, 0x00, 0xc0, 0x01, 0x00, 0x00, 0xb8, 0x01, 0x00, 0x00,
  0xb0, 0x01, 0x00, 0x00, 0xa8, 0x01, 0x00, 0x00, 0xa0, 0x01, 0x00, 0x00,
  0x98, 0x01, 0x00, 0x00, 0x90, 0x01, 0x00, 0x00, 0x88, 0x01, 0x00, 0x00,
  0x80, 0x01, 0x00, 0x00, 0x78, 0x01, 0x00, 0x00, 0x70, 0x01, 0x00, 0x00,
  0x68, 0x01, 0x00, 0x00, 0x60, 0x01, 0x00, 0x00, 0x58, 0x01, 0x00, 0x00,
  0x50, 0x01, 0x00, 0x00, 0x48, 0x01, 0x00, 0x00, 0x40, 0x01, 0x00, 0x00,
  0x38, 0x01, 0x00, 0x00, 0x30, 0x01, 0x00, 0x00, 0x28, 0x01, 0x00, 0x00,
  0x20, 0x01, 0x00, 0x00, 0x18, 0x01, 0x00, 0x00, 0x10, 0x01, 0x00, 0x00,
  0x08, 0x01, 0x00, 0x00, 0x00, 0x01, 0x00, 0x00, 0xf8, 0x00, 0x00, 0x00,
  0xf0, 0x00, 0x00, 0x00, 0xe8, 0x00, 0x00, 0x00, 0xe0, 0x00, 0x00, 0x00,
  0xd8, 0x00, 0x00, 0x00, 0xd0, 0x00, 0x00, 0x00, 0xc8, 0x00, 0x00, 0x00,
  0xc0, 0x00, 0x00, 0x00, 0xb8, 0x00, 0x00, 0x00, 0xb0, 0x00, 0x00, 0x00,
  0xa8, 0x00, 0x00, 0x00, 0xa0, 0x00, 0x00, 0x00, 0x98, 0x00, 0x00, 0x00,
  0x90, 0x00, 0x00, 0x00, 0x88, 0x00, 0x00, 0x00, 0x68, 0x00, 0x00, 0x00,
  0x04, 0x00, 0x00, 0x00, 0xbe, 0xd1, 0xff, 0xff, 0x04, 0x00, 0x00, 0x00,
  0x54, 0x00, 0x00, 0x00, 0x0c, 0x00, 0x00, 0x00, 0x08, 0x00, 0x0e, 0x00,
  0x08, 0x00, 0x04, 0x00, 0x08, 0x00, 0x00, 0x00, 0x10, 0x00, 0x00, 0x00,
  0x24, 0x00, 0x00, 0x00, 0x00, 0x00, 0x06, 0x00, 0x08, 0x00, 0x04, 0x00,
  0x06, 0x00, 0x00, 0x00, 0x04, 0x00, 0x00, 0x00, 0x00, 0x00, 0x00, 0x00,
  0x00, 0x00, 0x0a, 0x00, 0x10, 0x00, 0x0c, 0x00, 0x08, 0x00, 0x04, 0x00,
  0x0a, 0x00, 0x00, 0x00, 0x01, 0x00, 0x00, 0x00, 0x02, 0x00, 0x00, 0x00,
  0x04, 0x00, 0x00, 0x00, 0x06, 0x00, 0x00, 0x00, 0x32, 0x2e, 0x31, 0x34,
  0x2e, 0x30, 0x00, 0x00, 0x1e, 0xd2, 0xff, 0xff, 0x04, 0x00, 0x00, 0x00,
  0x10, 0x00, 0x00, 0x00, 0x31, 0x2e, 0x31, 0x34, 0x2e, 0x30, 0x00, 0x00,
  0x00, 0x00, 0x00, 0x00, 0x00, 0x00, 0x00, 0x00, 0x80, 0x87, 0xff, 0xff,
  0x84, 0x87, 0xff, 0xff, 0x88, 0x87, 0xff, 0xff, 0x8c, 0x87, 0xff, 0xff,
  0x90, 0x87, 0xff, 0xff, 0x94, 0x87, 0xff, 0xff, 0x98, 0x87, 0xff, 0xff,
  0x9c, 0x87, 0xff, 0xff, 0xa0, 0x87, 0xff, 0xff, 0xa4, 0x87, 0xff, 0xff,
  0xa8, 0x87, 0xff, 0xff, 0xac, 0x87, 0xff, 0xff, 0xb0, 0x87, 0xff, 0xff,
  0xb4, 0x87, 0xff, 0xff, 0xb8, 0x87, 0xff, 0xff, 0xbc, 0x87, 0xff, 0xff,
  0xc0, 0x87, 0xff, 0xff, 0xc4, 0x87, 0xff, 0xff, 0xc8, 0x87, 0xff, 0xff,
  0xcc, 0x87, 0xff, 0xff, 0xd0, 0x87, 0xff, 0xff, 0xd4, 0x87, 0xff, 0xff,
  0xd8, 0x87, 0xff, 0xff, 0xdc, 0x87, 0xff, 0xff, 0xe0, 0x87, 0xff, 0xff,
  0xe4, 0x87, 0xff, 0xff, 0xe8, 0x87, 0xff, 0xff, 0xec, 0x87, 0xff, 0xff,
  0xf0, 0x87, 0xff, 0xff, 0xf4, 0x87, 0xff, 0xff, 0xf8, 0x87, 0xff, 0xff,
  0xfc, 0x87, 0xff, 0xff, 0x00, 0x88, 0xff, 0xff, 0x04, 0x88, 0xff, 0xff,
  0x08, 0x88, 0xff, 0xff, 0x0c, 0x88, 0xff, 0xff, 0x10, 0x88, 0xff, 0xff,
  0x14, 0x88, 0xff, 0xff, 0x18, 0x88, 0xff, 0xff, 0x1c, 0x88, 0xff, 0xff,
  0x20, 0x88, 0xff, 0xff, 0x24, 0x88, 0xff, 0xff, 0x28, 0x88, 0xff, 0xff,
  0x2c, 0x88, 0xff, 0xff, 0x30, 0x88, 0xff, 0xff, 0x34, 0x88, 0xff, 0xff,
  0x38, 0x88, 0xff, 0xff, 0x3c, 0x88, 0xff, 0xff, 0x40, 0x88, 0xff, 0xff,
  0x44, 0x88, 0xff, 0xff, 0x48, 0x88, 0xff, 0xff, 0x4c, 0x88, 0xff, 0xff,
  0x50, 0x88, 0xff, 0xff, 0x54, 0x88, 0xff, 0xff, 0x58, 0x88, 0xff, 0xff,
  0x5c, 0x88, 0xff, 0xff, 0x60, 0x88, 0xff, 0xff, 0x64, 0x88, 0xff, 0xff,
  0x68, 0x88, 0xff, 0xff, 0x6c, 0x88, 0xff, 0xff, 0x70, 0x88, 0xff, 0xff,
  0x74, 0x88, 0xff, 0xff, 0x78, 0x88, 0xff, 0xff, 0x7c, 0x88, 0xff, 0xff,
  0x80, 0x88, 0xff, 0xff, 0x84, 0x88, 0xff, 0xff, 0x88, 0x88, 0xff, 0xff,
  0x8c, 0x88, 0xff, 0xff, 0x90, 0x88, 0xff, 0xff, 0x94, 0x88, 0xff, 0xff,
  0x98, 0x88, 0xff, 0xff, 0x9c, 0x88, 0xff, 0xff, 0xa0, 0x88, 0xff, 0xff,
  0xa4, 0x88, 0xff, 0xff, 0xa8, 0x88, 0xff, 0xff, 0xac, 0x88, 0xff, 0xff,
  0xb0, 0x88, 0xff, 0xff, 0xb4, 0x88, 0xff, 0xff, 0xb8, 0x88, 0xff, 0xff,
  0xbc, 0x88, 0xff, 0xff, 0xc0, 0x88, 0xff, 0xff, 0xc4, 0x88, 0xff, 0xff,
  0xc8, 0x88, 0xff, 0xff, 0xcc, 0x88, 0xff, 0xff, 0xd0, 0x88, 0xff, 0xff,
  0xd4, 0x88, 0xff, 0xff, 0xd8, 0x88, 0xff, 0xff, 0xdc, 0x88, 0xff, 0xff,
  0xe0, 0x88, 0xff, 0xff, 0xe4, 0x88, 0xff, 0xff, 0xe8, 0x88, 0xff, 0xff,
  0xec, 0x88, 0xff, 0xff, 0xf0, 0x88, 0xff, 0xff, 0xf4, 0x88, 0xff, 0xff,
  0xf8, 0x88, 0xff, 0xff, 0xfc, 0x88, 0xff, 0xff, 0x00, 0x89, 0xff, 0xff,
  0x04, 0x89, 0xff, 0xff, 0x08, 0x89, 0xff, 0xff, 0x0c, 0x89, 0xff, 0xff,
  0x10, 0x89, 0xff, 0xff, 0x14, 0x89, 0xff, 0xff, 0x18, 0x89, 0xff, 0xff,
  0x1c, 0x89, 0xff, 0xff, 0x20, 0x89, 0xff, 0xff, 0x24, 0x89, 0xff, 0xff,
  0x28, 0x89, 0xff, 0xff, 0x2c, 0x89, 0xff, 0xff, 0x30, 0x89, 0xff, 0xff,
  0x34, 0x89, 0xff, 0xff, 0x38, 0x89, 0xff, 0xff, 0x3c, 0x89, 0xff, 0xff,
  0x40, 0x89, 0xff, 0xff, 0x44, 0x89, 0xff, 0xff, 0x48, 0x89, 0xff, 0xff,
  0x4c, 0x89, 0xff, 0xff, 0x50, 0x89, 0xff, 0xff, 0x54, 0x89, 0xff, 0xff,
  0x58, 0x89, 0xff, 0xff, 0x5c, 0x89, 0xff, 0xff, 0x60, 0x89, 0xff, 0xff,
  0x64, 0x89, 0xff, 0xff, 0x68, 0x89, 0xff, 0xff, 0x6c, 0x89, 0xff, 0xff,
  0x70, 0x89, 0xff, 0xff, 0x74, 0x89, 0xff, 0xff, 0x78, 0x89, 0xff, 0xff,
  0x7c, 0x89, 0xff, 0xff, 0x80, 0x89, 0xff, 0xff, 0x84, 0x89, 0xff, 0xff,
  0x88, 0x89, 0xff, 0xff, 0x8c, 0x89, 0xff, 0xff, 0x90, 0x89, 0xff, 0xff,
  0x94, 0x89, 0xff, 0xff, 0x98, 0x89, 0xff, 0xff, 0x9c, 0x89, 0xff, 0xff,
  0xa0, 0x89, 0xff, 0xff, 0xa4, 0x89, 0xff, 0xff, 0xa8, 0x89, 0xff, 0xff,
  0xac, 0x89, 0xff, 0xff, 0xb0, 0x89, 0xff, 0xff, 0xb4, 0x89, 0xff, 0xff,
  0xb8, 0x89, 0xff, 0xff, 0xbc, 0x89, 0xff, 0xff, 0xc0, 0x89, 0xff, 0xff,
  0xc4, 0x89, 0xff, 0xff, 0xc8, 0x89, 0xff, 0xff, 0xcc, 0x89, 0xff, 0xff,
  0xd0, 0x89, 0xff, 0xff, 0xd4, 0x89, 0xff, 0xff, 0xd8, 0x89, 0xff, 0xff,
  0xdc, 0x89, 0xff, 0xff, 0xe0, 0x89, 0xff, 0xff, 0xe4, 0x89, 0xff, 0xff,
  0xe8, 0x89, 0xff, 0xff, 0xec, 0x89, 0xff, 0xff, 0xf0, 0x89, 0xff, 0xff,
  0xf4, 0x89, 0xff, 0xff, 0xf8, 0x89, 0xff, 0xff, 0xfc, 0x89, 0xff, 0xff,
  0x00, 0x8a, 0xff, 0xff, 0x04, 0x8a, 0xff, 0xff, 0x08, 0x8a, 0xff, 0xff,
  0x0c, 0x8a, 0xff, 0xff, 0x10, 0x8a, 0xff, 0xff, 0x14, 0x8a, 0xff, 0xff,
  0x18, 0x8a, 0xff, 0xff, 0x1c, 0x8a, 0xff, 0xff, 0x20, 0x8a, 0xff, 0xff,
  0xde, 0xd4, 0xff, 0xff, 0x04, 0x00, 0x00, 0x00, 0x20, 0x00, 0x00, 0x00,
  0x08, 0xb0, 0x55, 0x3f, 0x49, 0x6e, 0x18, 0x3f, 0xef, 0xf0, 0x49, 0x3f,
  0x43, 0xcf, 0x29, 0xbf, 0xab, 0xd3, 0x0f, 0xbf, 0x98, 0x8d, 0x7b, 0x3f,
  0xa3, 0x2a, 0x11, 0x3f, 0x63, 0xcf, 0x3f, 0xbf, 0x0a, 0xd5, 0xff, 0xff,
  0x04, 0x00, 0x00, 0x00, 0x80, 0x01, 0x00, 0x00, 0xff, 0x96, 0xa9, 0xbe,
  0x37, 0xf0, 0xdc, 0xbe, 0x09, 0xb8, 0xaa, 0xbe, 0x21, 0x43, 0xb2, 0x3e,
  0x37, 0x77, 0xc6, 0xbe, 0x3c, 0x0b, 0x0d, 0xbe, 0x06, 0x1c, 0x36, 0xbd,
  0xf3, 0x41, 0xf9, 0x3e, 0x4e, 0xa9, 0x23, 0xbe, 0xde, 0x1e, 0xcc, 0x3e,
  0x3b, 0x42, 0x8c, 0xbd, 0x8a, 0x7f, 0x02, 0xbe, 0x82, 0x7a, 0x12, 0xbf,
  0xfe, 0xc2, 0xdc, 0xbe, 0x27, 0x63, 0xb5, 0xbe, 0x36, 0x9a, 0xdb, 0x3b,
  0x2a, 0xf6, 0xcd, 0xbe, 0x58, 0xf0, 0xf8, 0xbe, 0x2c, 0xa5, 0xae, 0x3d,
  0xbd, 0xea, 0x67, 0xbe, 0x1a, 0x06, 0x8e, 0xbe, 0x27, 0xda, 0xb5, 0xbe,
  0xc3, 0x93, 0xba, 0xbc, 0x94, 0x1c, 0x09, 0xbe, 0xe2, 0xfe, 0x83, 0xbe,
  0x2c, 0x30, 0xac, 0x3e, 0xf4, 0x77, 0x2f, 0x3f, 0xfb, 0x9e, 0x9a, 0x3e,
  0x83, 0x95, 0x07, 0xbe, 0x71, 0xb6, 0xcb, 0x3e, 0x15, 0x4b, 0x24, 0x3e,
  0x17, 0xb4, 0x4c, 0x3f, 0xed, 0x5a, 0x12, 0xbf, 0xd1, 0xe7, 0x3b, 0x3e,
  0xee, 0xcb, 0x01, 0x3f, 0x53, 0xea, 0xea, 0xbe, 0x34, 0x6a, 0x8f, 0x3d,
  0x50, 0x58, 0xca, 0xbd, 0x3f, 0x78, 0xb2, 0x3d, 0xac, 0x76, 0xe0, 0x3e,
  0x67, 0x3a, 0x86, 0xbe, 0x8c, 0x76, 0x91, 0xbc, 0x48, 0xe7, 0xf6, 0x3e,
  0x8e, 0x92, 0x1b, 0xbf, 0xd6, 0xb2, 0x8c, 0xbe, 0x67, 0x8b, 0x9d, 0x3e,
  0x39, 0x91, 0x47, 0x3e, 0x2b, 0x63, 0xea, 0x3c, 0xb1, 0x40, 0x43, 0x3f,
  0xc6, 0x04, 0x76, 0x3e, 0x87, 0x8a, 0x0a, 0xbf, 0x83, 0xcc, 0x02, 0xbe,
  0xe2, 0x70, 0xa3, 0xbe, 0x8f, 0xb8, 0x00, 0xbf, 0x61, 0xf4, 0xeb, 0x3c,
  0x7c, 0xe2, 0x7a, 0x3d, 0xc7, 0xb9, 0x84, 0x3e, 0x8f, 0x06, 0xe3, 0x3e,
  0xc0, 0x1f, 0x03, 0x3e, 0xb9, 0xcf, 0xde, 0x3e, 0x7a, 0x2a, 0x16, 0xbf,
  0xc6, 0x66, 0xd3, 0x3e, 0xa7, 0x93, 0xa9, 0xbe, 0x6d, 0x6d, 0x3d, 0x3e,
  0xe7, 0x49, 0xee, 0xbe, 0x3f, 0xf9, 0xce, 0x3e, 0x41, 0xea, 0xd4, 0x3e,
  0x7d, 0x16, 0x84, 0x3e, 0x54, 0xa6, 0xa7, 0x3d, 0x9c, 0xef, 0x08, 0x3f,
  0x33, 0xb9, 0xed, 0x3d, 0xc4, 0x11, 0x11, 0xbe, 0xae, 0xe4, 0x34, 0xbe,
  0x93, 0x40, 0x0e, 0x3f, 0x40, 0xa6, 0x4c, 0xbd, 0xa4, 0x0f, 0x8d, 0x3e,
  0x38, 0x9f, 0x97, 0xbe, 0x83, 0x68, 0x19, 0x3e, 0x64, 0xb9, 0x0b, 0xbf,
  0xa9, 0xbf, 0xea, 0xbc, 0x79, 0xc2, 0x26, 0xbf, 0x92, 0xf6, 0x19, 0x3f,
  0xd0, 0x0a, 0x3d, 0x3e, 0x89, 0xa3, 0x24, 0xbf, 0xe1, 0x38, 0xba, 0xbe,
  0x1a, 0x72, 0x28, 0xbe, 0xa7, 0x9f, 0xb1, 0xbe, 0x8a, 0x68, 0xf8, 0x3d,
  0x15, 0x75, 0x3b, 0x3e, 0x9a, 0xa3, 0xa8, 0x3b, 0x17, 0xbe, 0x33, 0x3d,
  0x8c, 0x37, 0x57, 0xbe, 0x14, 0x4c, 0xe9, 0x3e, 0x4b, 0x00, 0x55, 0xbe,
  0x5d, 0xae, 0xf8, 0xbd, 0x1c, 0x68, 0xc3, 0x3c, 0x96, 0xd6, 0xff, 0xff,
  0x04, 0x00, 0x00, 0x00, 0x00, 0x06, 0x00, 0x00, 0x06, 0x64, 0x5e, 0xbe,
  0xba, 0xb8, 0x91, 0xbe, 0x52, 0x8b, 0x69, 0x3e, 0x1c, 0xe6, 0x3f, 0x3e,
  0x9e, 0x74, 0xff, 0x3d, 0xb0, 0x28, 0xa4, 0x3d, 0x22, 0x7b, 0x58, 0x3e,
  0x88, 0xbe, 0x2e, 0xbe, 0xc0, 0xc4, 0x0e, 0xbd, 0xc8, 0xc4, 0x0a, 0x3e,
  0x74, 0x5c, 0x7b, 0xbe, 0x79, 0xbb, 0x1b, 0xbe, 0x14, 0x55, 0x38, 0xbc,
  0xa7, 0x7b, 0xb2, 0x3d, 0x8b, 0x43, 0x4b, 0x3d, 0xc7, 0xda, 0xd6, 0x3d,
  0xbc, 0x83, 0x04, 0x3e, 0x41, 0xed, 0x00, 0x3e, 0x64, 0x61, 0x3c, 0xbe,
  0x8f, 0xd2, 0xb8, 0x3c, 0xf3, 0x28, 0x32, 0x3e, 0x57, 0x91, 0xa1, 0xbe,
  0x32, 0x94, 0x5b, 0xbe, 0x76, 0xc5, 0xfd, 0xbd, 0x2e, 0x70, 0x96, 0xbd,
  0x93, 0x7f, 0x15, 0x3e, 0x9f, 0xfb, 0x0d, 0x3e, 0xb9, 0x47, 0x9b, 0x3d,
  0xc5, 0x28, 0x57, 0x3d, 0x03, 0xc0, 0x53, 0xbe, 0x19, 0xe9, 0xb1, 0xbe,
  0x42, 0x01, 0x01, 0x3e, 0x20, 0xdf, 0x3a, 0x3f, 0xcf, 0x9e, 0x1f, 0x3f,
  0xad, 0x10, 0x14, 0xbe, 0x7d, 0x20, 0xb1, 0xbe, 0xc7, 0xdd, 0xb4, 0xbe,
  0x67, 0xe4, 0x92, 0xbc, 0x06, 0xc3, 0xc5, 0xbe, 0xff, 0x47, 0x7d, 0x3e,
  0x50, 0xd0, 0x29, 0xbe, 0xb6, 0xad, 0xa3, 0x3e, 0xdd, 0xcf, 0xc4, 0xbe,
  0x58, 0xf6, 0x07, 0xbe, 0x1d, 0x76, 0x12, 0x3e, 0xfc, 0x9c, 0x89, 0xbe,
  0xd8, 0x2b, 0xeb, 0x3d, 0xfa, 0x53, 0x9b, 0x3d, 0x3a, 0xf3, 0x2f, 0x3d,
  0x5e, 0x28, 0xb6, 0x3d, 0x1a, 0x45, 0x24, 0x3e, 0xd8, 0xcd, 0x01, 0xbe,
  0x9c, 0xaf, 0x4f, 0x3e, 0x5e, 0x7f, 0x0c, 0x3c, 0xfd, 0xf6, 0x96, 0x3e,
  0x6b, 0x1a, 0x82, 0xbe, 0x9b, 0xf3, 0xe1, 0x3d, 0xe6, 0x7c, 0xd3, 0xbb,
  0xe8, 0x0f, 0xa8, 0xbe, 0x00, 0x09, 0xb0, 0xbd, 0xc7, 0x21, 0xdf, 0xbe,
  0xac, 0x8f, 0xf6, 0xb9, 0xb2, 0x2a, 0x87, 0xbe, 0x0e, 0x6a, 0xa5, 0xbd,
  0x4c, 0x73, 0x09, 0x3f, 0x11, 0x55, 0x2a, 0x3d, 0x85, 0x25, 0xcc, 0x3d,
  0x8e, 0x1b, 0x0b, 0xbb, 0x98, 0x29, 0x99, 0x3e, 0x59, 0x19, 0x24, 0xbe,
  0xe7, 0x47, 0xd7, 0xbe, 0x36, 0xa6, 0x50, 0x3e, 0x1f, 0xa9, 0x8e, 0x3e,
  0xaa, 0x89, 0x2b, 0x3d, 0x23, 0x38, 0x21, 0xbe, 0x24, 0x59, 0x26, 0xbe,
  0x1e, 0xd4, 0xda, 0x3c, 0xf0, 0x52, 0x5b, 0x3e, 0x94, 0x7d, 0x01, 0xbe,
  0x7d, 0xfe, 0x0d, 0x3e, 0x7f, 0x67, 0x97, 0xbd, 0xb8, 0x96, 0x2a, 0x3d,
  0x06, 0x27, 0x51, 0xbe, 0xe2, 0x8b, 0xcf, 0x3e, 0x32, 0xbf, 0xac, 0xbe,
  0x92, 0x70, 0x36, 0x3e, 0xf2, 0x52, 0x3d, 0x3e, 0x3e, 0xe3, 0x7a, 0x3e,
  0x07, 0xa9, 0x29, 0x3d, 0xce, 0xa2, 0x95, 0x3d, 0x3b, 0x65, 0x39, 0xbe,
  0x79, 0x0d, 0x0a, 0x3e, 0x47, 0x17, 0x20, 0x3e, 0x49, 0x4e, 0xee, 0xbe,
  0xa0, 0x90, 0x3c, 0xbe, 0x10, 0x1f, 0x8e, 0x3e, 0x15, 0xc0, 0x42, 0x3d,
  0x0a, 0x2d, 0x88, 0x3e, 0xc7, 0xcb, 0x00, 0x3e, 0x8c, 0x1c, 0x91, 0xbd,
  0x91, 0xe7, 0x96, 0xbe, 0x4d, 0x17, 0x81, 0x3e, 0xd2, 0xfa, 0x6e, 0xbe,
  0xe3, 0x28, 0x53, 0x3e, 0xc7, 0x2c, 0x44, 0x3e, 0x0c, 0xf1, 0xe7, 0xbc,
  0x19, 0xa0, 0x46, 0xbd, 0xd1, 0xae, 0x19, 0x3e, 0xad, 0x98, 0x4f, 0xbb,
  0x6c, 0xa0, 0xaf, 0x3b, 0xf1, 0xf7, 0x3b, 0xbe, 0xed, 0xa2, 0xa7, 0xbe,
  0x28, 0xdd, 0x72, 0xbe, 0xc1, 0x73, 0x03, 0xbe, 0x95, 0xdb, 0xdf, 0xbd,
  0xa7, 0x47, 0xd1, 0x3e, 0x62, 0x24, 0x8f, 0xbe, 0xe0, 0x14, 0xe8, 0xbe,
  0xbb, 0x92, 0x86, 0xbe, 0x0e, 0x23, 0x07, 0xbe, 0x18, 0x72, 0xbe, 0x3e,
  0x23, 0xfa, 0xea, 0x3c, 0x5e, 0x61, 0x59, 0xbd, 0xa3, 0xfe, 0x1d, 0xbe,
  0x19, 0x9a, 0x96, 0x3e, 0x23, 0x82, 0x81, 0xbe, 0x4a, 0x08, 0x3c, 0x3e,
  0x52, 0xfd, 0x5e, 0xbe, 0x87, 0x3b, 0x35, 0xbe, 0x01, 0x5e, 0xf5, 0x3c,
  0x0d, 0x1c, 0x27, 0x3e, 0x71, 0x42, 0x4f, 0xbe, 0xac, 0xe8, 0x34, 0x3d,
  0xd5, 0xf3, 0x9b, 0xbd, 0xdc, 0x37, 0x9e, 0x3d, 0x6d, 0xa6, 0xbe, 0x3d,
  0xf4, 0x28, 0xa2, 0x3d, 0x5b, 0x63, 0x97, 0x3c, 0x6e, 0x28, 0x4b, 0x3e,
  0x31, 0x01, 0xb2, 0x3d, 0xc4, 0xb1, 0x8a, 0xbd, 0x26, 0x6c, 0x85, 0x3e,
  0xf6, 0xaf, 0x6c, 0xbe, 0xbd, 0x55, 0x4d, 0xbc, 0x5a, 0x9c, 0x31, 0x3e,
  0x43, 0x35, 0xb9, 0x3c, 0x84, 0xa8, 0xeb, 0x3d, 0x42, 0x75, 0xab, 0xbc,
  0x94, 0x3c, 0x4b, 0x3e, 0x27, 0x0f, 0x90, 0x3e, 0xc5, 0xd5, 0xa0, 0x3e,
  0x7a, 0x1e, 0x13, 0xbd, 0xa3, 0x91, 0xe6, 0xbd, 0xfc, 0xf4, 0x1a, 0x3e,
  0x92, 0x22, 0xb7, 0xbc, 0x13, 0x35, 0x11, 0xbd, 0xe0, 0x35, 0xe7, 0x3d,
  0xd1, 0x53, 0x88, 0xbe, 0x77, 0x1c, 0xa4, 0xbe, 0x11, 0xb6, 0x2e, 0xbe,
  0x7d, 0x18, 0xa4, 0xbe, 0xad, 0xe1, 0x4e, 0x3d, 0xd5, 0x1b, 0x73, 0x3e,
  0x8d, 0x98, 0xe4, 0x3e, 0xc5, 0x10, 0x05, 0x3f, 0xac, 0x33, 0xe1, 0xbd,
  0x77, 0xcb, 0x10, 0xbc, 0x23, 0xd3, 0x0f, 0x3e, 0x2e, 0xac, 0x26, 0x3e,
  0xc7, 0xf1, 0x57, 0xbe, 0x4a, 0xfd, 0xb8, 0x3e, 0x22, 0x80, 0x37, 0x3d,
  0xcf, 0xcb, 0x9e, 0xbd, 0x75, 0x8a, 0x0d, 0x3e, 0x97, 0xd3, 0x75, 0x3d,
  0x23, 0x83, 0x72, 0x3d, 0x82, 0x6a, 0x3e, 0x3e, 0xec, 0x38, 0x5a, 0x3e,
  0x8d, 0xd9, 0x2c, 0xbe, 0x76, 0xeb, 0x8c, 0xbd, 0xa2, 0x4c, 0x9f, 0xbd,
  0xfd, 0x62, 0x60, 0xbe, 0x28, 0xb5, 0xc3, 0x3e, 0xf7, 0xf4, 0x07, 0xbe,
  0xbb, 0x64, 0xbe, 0x3e, 0xd1, 0x56, 0x59, 0x3d, 0x22, 0x89, 0x6b, 0x3e,
  0x74, 0x40, 0xfa, 0xbc, 0xd1, 0xfc, 0x15, 0xbe, 0xcc, 0x8a, 0x8d, 0xbd,
  0x27, 0x7c, 0x1d, 0x3e, 0x24, 0x9d, 0x93, 0xbe, 0x6f, 0x4e, 0x3e, 0xbe,
  0x68, 0x1b, 0xca, 0xbe, 0x2c, 0xff, 0x17, 0x3c, 0xfa, 0xe3, 0xda, 0x3c,
  0x92, 0x22, 0x59, 0x3c, 0x62, 0x41, 0x31, 0xbe, 0x7d, 0xae, 0x4e, 0xbd,
  0xbe, 0x1d, 0x84, 0xbe, 0xdb, 0xc6, 0xfb, 0xbd, 0x4c, 0x8f, 0x3a, 0x3e,
  0x10, 0x21, 0xed, 0xbd, 0x1c, 0x6d, 0xd0, 0xbe, 0x5d, 0x53, 0x99, 0x3e,
  0x24, 0x6c, 0x71, 0x3e, 0x50, 0x35, 0x39, 0xbd, 0x3b, 0xbb, 0x16, 0x3e,
  0xfa, 0x3e, 0x56, 0xbe, 0x2c, 0xce, 0xc0, 0x3e, 0x82, 0x07, 0xd2, 0xbd,
  0x3d, 0x2b, 0xc4, 0xb9, 0xd2, 0x07, 0x7f, 0x3e, 0xce, 0x0d, 0x8c, 0xbe,
  0x7f, 0x47, 0x02, 0x3e, 0xc8, 0xa1, 0x31, 0x3c, 0x20, 0x97, 0x58, 0x3d,
  0xe7, 0x23, 0x98, 0x3d, 0xdb, 0xad, 0x3a, 0x3e, 0xaf, 0xce, 0x61, 0x3e,
  0x2d, 0xf5, 0xa5, 0x3e, 0x73, 0x5c, 0x0f, 0x3e, 0x3a, 0xe8, 0x5e, 0x3e,
  0x95, 0xc1, 0xf6, 0x3e, 0xc1, 0x0b, 0x9a, 0x3d, 0x4e, 0x9f, 0x04, 0x3e,
  0x19, 0xd3, 0x56, 0xbd, 0x28, 0x40, 0x5f, 0xbe, 0x82, 0x96, 0x68, 0xbd,
  0x94, 0x71, 0xa8, 0x3e, 0xba, 0x33, 0xf9, 0x3d, 0x8b, 0x23, 0x9b, 0x3e,
  0xb6, 0x62, 0xe2, 0xbd, 0xba, 0xe6, 0x94, 0x3e, 0xea, 0x85, 0x83, 0x3b,
  0x27, 0xa1, 0xb2, 0x3d, 0xd2, 0x13, 0xb0, 0xbe, 0xd7, 0xdf, 0x5d, 0xbe,
  0x61, 0x58, 0x60, 0xbe, 0x71, 0x13, 0x19, 0xbe, 0xe1, 0x71, 0x84, 0x3e,
  0x15, 0x65, 0x11, 0xbe, 0x83, 0xa1, 0xcd, 0xbd, 0xe4, 0xe9, 0x4f, 0x3d,
  0x09, 0xfd, 0x6e, 0xbe, 0x8c, 0xee, 0xb0, 0x3e, 0xff, 0x6a, 0x98, 0xbd,
  0x60, 0xb1, 0xa1, 0xbe, 0x04, 0x21, 0xc1, 0x3e, 0xa1, 0x05, 0xb8, 0x3e,
  0x1b, 0xf2, 0x8c, 0x3d, 0xaa, 0xb5, 0xb0, 0x3e, 0x48, 0xf7, 0x24, 0xbe,
  0xa4, 0x85, 0x7a, 0xbe, 0x49, 0xc1, 0xc4, 0xbd, 0x81, 0xd9, 0x18, 0xbe,
  0x42, 0x08, 0x4b, 0x3d, 0x4f, 0xb5, 0xef, 0xbe, 0xbc, 0x53, 0x8e, 0xbd,
  0x5b, 0x4f, 0xc9, 0xbe, 0x11, 0x82, 0xbf, 0xbc, 0xd4, 0xac, 0x57, 0x3d,
  0xfc, 0xf2, 0x3e, 0x3e, 0xbb, 0x6b, 0x52, 0x3e, 0x90, 0x8a, 0xf7, 0xbd,
  0xab, 0xe9, 0x32, 0xbe, 0x26, 0x12, 0x47, 0xbe, 0xd6, 0x9f, 0x3a, 0x3e,
  0x38, 0xe4, 0x0c, 0x3e, 0x43, 0x16, 0x0d, 0xbe, 0xde, 0x4d, 0x03, 0xbd,
  0x43, 0x72, 0x12, 0xbe, 0x5d, 0xf3, 0x17, 0xbd, 0x47, 0x10, 0xea, 0x3d,
  0xf8, 0xb8, 0x1f, 0x3c, 0x7d, 0x6c, 0xf1, 0xbd, 0x30, 0xa6, 0x76, 0xbe,
  0xd5, 0xbd, 0x80, 0xbe, 0x90, 0xdd, 0x1b, 0x3e, 0x5a, 0x2b, 0x32, 0x3d,
  0x03, 0x67, 0x9d, 0xbe, 0x26, 0x95, 0x2e, 0xbf, 0x39, 0xec, 0x4d, 0x3e,
  0x48, 0x08, 0x56, 0x3e, 0xe9, 0x57, 0x22, 0x3e, 0x6b, 0x2c, 0x2e, 0x3e,
  0xab, 0x7d, 0xad, 0xbd, 0xa1, 0x1e, 0x51, 0x3e, 0xaa, 0xe7, 0xa3, 0xbe,
  0xba, 0xde, 0x37, 0xbd, 0x20, 0xbf, 0x35, 0xbe, 0x82, 0x4b, 0x58, 0xbc,
  0x88, 0xa5, 0x01, 0x3e, 0x07, 0xa6, 0x08, 0x3d, 0x97, 0xcb, 0xe6, 0xbd,
  0x01, 0x57, 0x1f, 0x3e, 0x55, 0x69, 0x6d, 0xbe, 0x27, 0xb3, 0xfc, 0x3e,
  0x97, 0x68, 0x68, 0x3d, 0x43, 0xa2, 0xd6, 0x3c, 0x25, 0x24, 0x36, 0xbe,
  0x0a, 0x57, 0x2c, 0x3e, 0x1d, 0x82, 0xa2, 0x3e, 0xb3, 0x50, 0x79, 0x3d,
  0xf2, 0x02, 0xe2, 0x3d, 0xe6, 0x7b, 0x00, 0x3f, 0x08, 0x03, 0xbd, 0x3e,
  0x3c, 0x64, 0x71, 0xbd, 0x02, 0x8a, 0x31, 0xbe, 0x91, 0x63, 0x9a, 0x3e,
  0x5c, 0x71, 0xd5, 0xbd, 0x1e, 0x56, 0xe7, 0xbd, 0x25, 0x35, 0x09, 0xbd,
  0xff, 0xb5, 0x49, 0x3d, 0x75, 0x1c, 0x55, 0xbe, 0x5e, 0x32, 0x06, 0xbe,
  0x36, 0x03, 0x19, 0x3b, 0xba, 0x01, 0x47, 0xbe, 0x27, 0x5f, 0xb8, 0xbe,
  0x8e, 0xc0, 0xa8, 0x3e, 0x8c, 0xa9, 0x2f, 0xbe, 0xdf, 0x0b, 0xf2, 0xbe,
  0xfc, 0xca, 0x3a, 0x3e, 0x21, 0x3a, 0x88, 0x3e, 0x2d, 0xa4, 0xc2, 0x3d,
  0x7f, 0x6d, 0x2b, 0x3e, 0x74, 0xb8, 0xbd, 0xbe, 0x82, 0x1f, 0x90, 0xbe,
  0xfb, 0x6c, 0xbe, 0x3d, 0xbe, 0x0a, 0x6a, 0x3e, 0xe8, 0x0d, 0x8e, 0xbe,
  0x6d, 0xa7, 0x9d, 0x3e, 0xd1, 0x56, 0x95, 0x3e, 0x47, 0x14, 0x19, 0x3e,
  0xce, 0xa3, 0x3b, 0xbd, 0xb3, 0x65, 0xdf, 0x3d, 0x12, 0x23, 0x4f, 0xbd,
  0xf5, 0x49, 0xfb, 0x3e, 0x66, 0x4b, 0x9a, 0xbd, 0x7b, 0xf5, 0x99, 0x3e,
  0x7c, 0x9b, 0xec, 0xbe, 0x53, 0xa2, 0xac, 0x3e, 0xa4, 0x0f, 0xbd, 0x3d,
  0xa5, 0x1e, 0x37, 0xbe, 0xe3, 0xd1, 0x85, 0x3e, 0x5f, 0x26, 0x29, 0x3e,
  0x99, 0xaf, 0x8d, 0xbd, 0x23, 0x34, 0xdd, 0x3e, 0x84, 0xa4, 0xc1, 0xbd,
  0x11, 0x4b, 0xd7, 0x3d, 0x39, 0x42, 0xb5, 0xbd, 0xda, 0x9a, 0xc0, 0xbc,
  0xa9, 0xad, 0xb3, 0x3e, 0xa3, 0x04, 0x94, 0x3d, 0x18, 0x3d, 0xa0, 0xbe,
  0xe8, 0x50, 0x4e, 0x3e, 0x9e, 0xff, 0x54, 0xbe, 0xec, 0xcd, 0xc9, 0xbe,
  0x96, 0x2d, 0x99, 0x3d, 0xf1, 0x0d, 0x58, 0x3e, 0x91, 0x86, 0x10, 0x3e,
  0x1d, 0x61, 0xde, 0xbe, 0xf2, 0x16, 0x29, 0xbe, 0xe5, 0xaa, 0x21, 0xbe,
  0xf7, 0x84, 0x6e, 0x3d, 0xad, 0xad, 0x3e, 0xbd, 0x11, 0xad, 0x21, 0x3e,
  0x53, 0xd9, 0xdf, 0x3d, 0x86, 0x6d, 0x19, 0x3d, 0x45, 0x7e, 0xba, 0x3e,
  0x07, 0x24, 0xdf, 0x3b, 0xf2, 0xfc, 0x8f, 0xbd, 0xaa, 0x5f, 0xe0, 0xbd,
  0x55, 0x02, 0x5f, 0x3e, 0x00, 0x48, 0x91, 0xbe, 0xe8, 0x87, 0x77, 0xbe,
  0x2e, 0x9e, 0xb0, 0xbe, 0x69, 0xe2, 0x91, 0x3e, 0x4a, 0xe9, 0x46, 0xbd,
  0xc7, 0xd5, 0x9c, 0x3e, 0xd6, 0xe8, 0xa0, 0x3e, 0xdc, 0xc4, 0x2a, 0xbe,
  0xc1, 0x66, 0x16, 0xbe, 0x82, 0x9a, 0x28, 0x3e, 0xa2, 0xdc, 0xff, 0xff,
  0x04, 0x00, 0x00, 0x00, 0x00, 0x09, 0x00, 0x00, 0x86, 0x10, 0xc2, 0xbd,
  0x04, 0xa0, 0x96, 0x3e, 0xc3, 0xd5, 0xf8, 0xbd, 0x7a, 0x62, 0x3d, 0x3c,
  0x39, 0x14, 0xd1, 0xbd, 0x46, 0x42, 0x3b, 0xbd, 0x85, 0xfa, 0x18, 0x3e,
  0x75, 0x9d, 0xe5, 0x3d, 0xff, 0x87, 0x2a, 0x3e, 0xbe, 0xc5, 0x31, 0xbe,
  0x77, 0xa2, 0x97, 0xbe, 0x65, 0xa6, 0xbc, 0x3e, 0xaa, 0x7c, 0xe6, 0xbd,
  0x6c, 0xd2, 0x76, 0x3d, 0x6d, 0x97, 0x96, 0x3d, 0x37, 0xe2, 0xd8, 0xbd,
  0xc1, 0xcb, 0x05, 0xbe, 0xd7, 0x79, 0x2d, 0xbd, 0xde, 0x30, 0x87, 0xbe,
  0xde, 0x2c, 0xad, 0xbe, 0x48, 0x79, 0x5a, 0x3d, 0x72, 0xdb, 0x82, 0x3d,
  0xb7, 0x74, 0x77, 0xbe, 0xb5, 0xd9, 0xf5, 0x3b, 0xb1, 0xc9, 0xc7, 0x3c,
  0x9b, 0x18, 0xb2, 0x3e, 0xfb, 0x6c, 0xdd, 0x3d, 0x48, 0xcc, 0xf3, 0x3c,
  0xb9, 0xf3, 0x8f, 0x3e, 0x6b, 0xe1, 0x37, 0x3e, 0x3f, 0x0c, 0x7c, 0xbe,
  0xe7, 0x2e, 0x0b, 0x3e, 0x9a, 0xdd, 0x39, 0xbe, 0x63, 0x5a, 0x8a, 0xbe,
  0x70, 0x8c, 0x7e, 0x3e, 0x55, 0x05, 0xbc, 0xbd, 0x42, 0x64, 0xe4, 0xbd,
  0x55, 0x39, 0x5e, 0xbe, 0xfe, 0x22, 0x2c, 0xbe, 0xa8, 0x93, 0x07, 0x3e,
  0x48, 0xda, 0xf2, 0xbe, 0xfa, 0x33, 0x60, 0x3d, 0x81, 0xd1, 0x8a, 0xbe,
  0xe0, 0x68, 0xe1, 0x3d, 0x2e, 0xab, 0xad, 0xbe, 0x5a, 0x66, 0x56, 0xbe,
  0xd7, 0x39, 0x00, 0xbe, 0x80, 0x3b, 0x1c, 0x3d, 0x2a, 0x56, 0x41, 0xbe,
  0x65, 0x71, 0x8b, 0xbd, 0x57, 0x7c, 0xd0, 0x3e, 0xf6, 0x9b, 0x40, 0xbe,
  0x36, 0x63, 0xab, 0x3d, 0x65, 0x4a, 0x65, 0x3d, 0xb0, 0xc9, 0x95, 0x3e,
  0xfe, 0x52, 0x8e, 0x3d, 0x1f, 0xca, 0x4a, 0xbe, 0x8f, 0x3c, 0xc0, 0xbe,
  0x97, 0x97, 0x89, 0x3e, 0x43, 0x19, 0xb1, 0xbe, 0xb1, 0x2d, 0x80, 0x3e,
  0x20, 0xb0, 0xa2, 0xbc, 0xea, 0x64, 0xb2, 0xbd, 0x6c, 0x09, 0x2f, 0xbd,
  0xfb, 0xb3, 0xd5, 0x3b, 0x75, 0x54, 0x3f, 0x3d, 0x41, 0x3c, 0x9f, 0x3e,
  0x3b, 0x53, 0x27, 0x3e, 0xd7, 0xb7, 0x99, 0x3d, 0x1c, 0x6c, 0x9e, 0xbc,
  0xe3, 0x45, 0x5f, 0xbe, 0x83, 0x9c, 0xea, 0xbe, 0xbe, 0x9d, 0x49, 0xbe,
  0x60, 0x20, 0x0c, 0x3e, 0xac, 0x08, 0x17, 0xbe, 0x92, 0x65, 0xde, 0x3d,
  0x22, 0x8d, 0x11, 0x3e, 0x3e, 0x5e, 0x0c, 0xbe, 0x73, 0xd9, 0x0f, 0x3e,
  0x06, 0x6b, 0x32, 0xbd, 0xde, 0x63, 0xef, 0x3d, 0x2a, 0x06, 0x16, 0xbe,
  0x4e, 0xa0, 0x3e, 0x3e, 0xe9, 0xdb, 0x6d, 0x3d, 0xa1, 0xc8, 0x89, 0xbe,
  0x30, 0xb7, 0xd5, 0x3d, 0xc9, 0x17, 0x25, 0x3e, 0x35, 0x97, 0x53, 0xbe,
  0xf0, 0xf6, 0x7c, 0x3d, 0x26, 0x96, 0x51, 0xbb, 0x46, 0x3a, 0x0f, 0xbe,
  0x58, 0x98, 0x36, 0x3e, 0x88, 0x31, 0x17, 0x3d, 0x58, 0x21, 0xf6, 0xbd,
  0x57, 0x36, 0xb0, 0xbd, 0x77, 0x06, 0x87, 0x3d, 0x7f, 0x19, 0xc4, 0xbe,
  0x6e, 0x3d, 0x0f, 0x3e, 0x4e, 0xa6, 0x79, 0xbb, 0x28, 0x50, 0x4d, 0xbe,
  0x85, 0x48, 0x91, 0x3e, 0x6d, 0x2d, 0xcf, 0x3d, 0x5f, 0xeb, 0xa4, 0x3d,
  0x67, 0xb6, 0xd2, 0x3d, 0x32, 0xdf, 0xad, 0x3d, 0xd9, 0x29, 0x77, 0x3e,
  0xe0, 0x76, 0xa0, 0x3e, 0x03, 0x34, 0x83, 0xbe, 0xcb, 0x80, 0x61, 0xbe,
  0x73, 0x74, 0x46, 0x3d, 0x73, 0xd2, 0x7e, 0x3e, 0xb9, 0xbc, 0xcb, 0xbe,
  0x86, 0xcc, 0x87, 0xbd, 0xe7, 0x47, 0x98, 0x3e, 0x06, 0x62, 0x12, 0x3e,
  0xc2, 0xe6, 0x5b, 0x3e, 0xe2, 0x65, 0x9a, 0xbe, 0xf0, 0xca, 0xf2, 0xbd,
  0x7a, 0x21, 0x04, 0x3e, 0x47, 0x7c, 0xe8, 0xbe, 0x8f, 0x81, 0xbf, 0x3c,
  0xd0, 0xf4, 0x27, 0x3c, 0x82, 0x14, 0x72, 0x3e, 0xc4, 0x47, 0x00, 0x3d,
  0x8c, 0x52, 0x63, 0xbb, 0x27, 0xeb, 0xc5, 0x3d, 0xd0, 0x1b, 0x6d, 0xbc,
  0x82, 0x9b, 0x4d, 0xbe, 0x81, 0x59, 0x89, 0x3d, 0xc0, 0xbd, 0x7f, 0xbe,
  0x8f, 0x1d, 0x38, 0x3e, 0x32, 0x1d, 0x2d, 0x3e, 0xe4, 0xc5, 0x85, 0x3e,
  0xb6, 0x26, 0x38, 0xbc, 0xae, 0xb1, 0x13, 0xbd, 0x65, 0xcc, 0xb3, 0x3e,
  0x6f, 0x2e, 0xc5, 0xbd, 0x8b, 0x81, 0x3a, 0xbd, 0xa8, 0x74, 0x6a, 0xbd,
  0x6b, 0x05, 0xa8, 0x3e, 0x52, 0x04, 0xf6, 0xbb, 0x38, 0x75, 0x30, 0xbd,
  0x3e, 0xed, 0x3b, 0xbe, 0xd1, 0x6c, 0xb5, 0x3c, 0x22, 0xc2, 0xd7, 0xbd,
  0x8c, 0x49, 0xef, 0xbb, 0x74, 0x9b, 0xff, 0x3c, 0x44, 0xd4, 0xa0, 0x3d,
  0x81, 0x49, 0xb3, 0xbe, 0xe5, 0x29, 0xbb, 0xbd, 0x4c, 0xc3, 0x48, 0xbd,
  0x6f, 0x6d, 0x07, 0x3e, 0x0d, 0x35, 0x5b, 0xbe, 0xa2, 0x68, 0x35, 0xbd,
  0x16, 0x69, 0x0c, 0x3e, 0x6c, 0xe1, 0xd7, 0xbd, 0xa7, 0x86, 0xef, 0x3b,
  0xac, 0xe5, 0x1f, 0x3e, 0x02, 0x3c, 0x74, 0xbd, 0x01, 0xfa, 0xf0, 0xbd,
  0x34, 0xd6, 0xcb, 0x3c, 0x29, 0x0b, 0x80, 0x3e, 0xa3, 0x67, 0x49, 0xbe,
  0xd0, 0x92, 0xb2, 0x3e, 0x46, 0xe5, 0x28, 0x3e, 0x68, 0xb8, 0xc2, 0xbd,
  0xdd, 0x23, 0x58, 0x3e, 0xd7, 0x73, 0xe3, 0xbd, 0x7a, 0x97, 0xfa, 0xbd,
  0xa0, 0x6a, 0x91, 0x3d, 0x4f, 0x86, 0xf3, 0x3d, 0x0c, 0x5f, 0xa2, 0xbd,
  0xf3, 0xc0, 0x6a, 0xbd, 0xe2, 0x2b, 0xd3, 0xbc, 0x7a, 0x35, 0x4f, 0xbe,
  0x78, 0x54, 0x34, 0x3e, 0x62, 0xca, 0x6c, 0xbc, 0x4b, 0x3c, 0x8f, 0x3e,
  0xd2, 0x66, 0x02, 0xbe, 0xd7, 0x91, 0xa1, 0xbe, 0x7b, 0xb6, 0x96, 0xbd,
  0x0f, 0x64, 0x6d, 0xbe, 0xff, 0xc2, 0xb6, 0xbe, 0xc0, 0x92, 0xce, 0x3d,
  0x3f, 0xe3, 0x8f, 0xbe, 0x39, 0xb9, 0xce, 0xbe, 0x28, 0xb8, 0xad, 0xbd,
  0x7a, 0xaa, 0x39, 0xbe, 0x77, 0x00, 0x4e, 0xbd, 0x5e, 0x95, 0xbc, 0xbd,
  0xbc, 0x68, 0x3e, 0xbd, 0x7c, 0xba, 0xe2, 0x3d, 0x7e, 0x4d, 0x64, 0xbe,
  0xd2, 0x2a, 0xab, 0x3d, 0x81, 0x4b, 0x0a, 0xbc, 0x21, 0x15, 0x68, 0xbd,
  0xdc, 0x9c, 0xd8, 0xbc, 0xfb, 0x70, 0x1c, 0xbe, 0x6c, 0xc5, 0x90, 0x3d,
  0x1b, 0x8a, 0xdb, 0xbd, 0x9e, 0xb3, 0x3e, 0xbd, 0xc0, 0xa6, 0x2d, 0x3c,
  0x3a, 0xd9, 0x0e, 0x3d, 0xd7, 0xd1, 0x27, 0xbd, 0x9e, 0xfe, 0xc0, 0x3d,
  0x82, 0x5e, 0x10, 0x3e, 0xd8, 0xba, 0x21, 0xbe, 0x90, 0x35, 0x09, 0xbe,
  0xe0, 0xac, 0xcd, 0xbd, 0x9c, 0xb0, 0x9c, 0x3d, 0xf6, 0x48, 0x0d, 0x3e,
  0xbc, 0xaf, 0x32, 0xbc, 0x26, 0xbc, 0xa0, 0x3e, 0x6a, 0x84, 0x9e, 0xbc,
  0x12, 0x78, 0xea, 0x3c, 0xc2, 0x56, 0x78, 0x3d, 0xbe, 0xc9, 0x9d, 0xb9,
  0x4c, 0x3d, 0xbf, 0x3d, 0xac, 0xe7, 0x57, 0xbd, 0x63, 0x95, 0x96, 0x3d,
  0x80, 0xab, 0xba, 0x3e, 0x91, 0xf9, 0x1a, 0xbd, 0x55, 0x7b, 0x06, 0xbb,
  0x6d, 0x00, 0x01, 0x3e, 0x6c, 0x89, 0x4f, 0x3d, 0x84, 0x5a, 0xcc, 0xbd,
  0xdf, 0xa6, 0x6c, 0x3d, 0xe3, 0x81, 0xf9, 0x3d, 0x9c, 0x63, 0xf8, 0x3b,
  0x34, 0xe0, 0x50, 0x3e, 0xf4, 0x0f, 0xac, 0xbd, 0xa4, 0x69, 0x0c, 0x3e,
  0xde, 0xa8, 0x5d, 0xbe, 0xc2, 0xe7, 0x95, 0xbb, 0x63, 0x50, 0xb9, 0x3d,
  0x7f, 0xd1, 0x50, 0xbe, 0xf8, 0xce, 0x93, 0x3e, 0x21, 0x83, 0xbb, 0xbe,
  0x58, 0x01, 0x91, 0xbe, 0x7c, 0xe6, 0x27, 0x3e, 0xa9, 0xc7, 0x46, 0xbe,
  0xae, 0x21, 0xb8, 0x3d, 0xa6, 0x95, 0x46, 0xbe, 0xb9, 0xce, 0xba, 0x3e,
  0x99, 0xf9, 0x1e, 0xbe, 0x02, 0x21, 0xaf, 0xbe, 0xdd, 0x91, 0x91, 0x3e,
  0x20, 0x94, 0xa4, 0xbe, 0x91, 0x39, 0x00, 0x3f, 0x52, 0x1b, 0x8d, 0x3e,
  0xa9, 0x07, 0x1f, 0xbe, 0xfe, 0x69, 0xaf, 0x3e, 0xf4, 0xbd, 0x6c, 0xbd,
  0x09, 0x6a, 0x03, 0x3f, 0xb2, 0x8b, 0x0b, 0x3e, 0xd5, 0xfd, 0x20, 0x3e,
  0xaa, 0xd1, 0x38, 0xbe, 0xa9, 0x21, 0x16, 0xbe, 0x75, 0x26, 0x32, 0x3e,
  0x4c, 0x14, 0x18, 0x3e, 0xc0, 0x32, 0xd7, 0xbe, 0x3f, 0x8b, 0x15, 0x3e,
  0xe7, 0x67, 0x82, 0xbe, 0xbb, 0x59, 0x71, 0xbe, 0x7c, 0x93, 0x26, 0xbe,
  0x8c, 0xd4, 0x18, 0x3e, 0xa2, 0xdd, 0x6a, 0xbd, 0xa9, 0x17, 0x86, 0xbc,
  0x18, 0xf1, 0xbb, 0xbd, 0x4b, 0xf1, 0x0e, 0xbe, 0x16, 0xfb, 0x27, 0x3e,
  0xdf, 0xad, 0x1a, 0xbe, 0xe1, 0xd7, 0x38, 0x3e, 0x82, 0x61, 0x9d, 0xbd,
  0x23, 0x78, 0xc2, 0x3c, 0x53, 0x46, 0x4b, 0x3e, 0x44, 0x0c, 0x89, 0xbd,
  0xcd, 0x32, 0xae, 0xbd, 0x52, 0xce, 0x14, 0xbc, 0x63, 0xe0, 0x90, 0xbe,
  0xe0, 0x3e, 0x5d, 0x3c, 0x54, 0xef, 0x98, 0x3e, 0xdb, 0xda, 0x98, 0x3e,
  0x4d, 0x49, 0xce, 0xbe, 0x13, 0x74, 0x04, 0x3e, 0x02, 0x37, 0xe6, 0xbd,
  0x92, 0xdf, 0x85, 0xbe, 0x96, 0x62, 0x93, 0xbe, 0x4f, 0xfc, 0x20, 0x3e,
  0x83, 0xce, 0x3d, 0x3d, 0x0e, 0xe9, 0xb9, 0x3d, 0xdc, 0x41, 0x08, 0xbe,
  0x57, 0x0e, 0x68, 0x3e, 0x61, 0x4a, 0x51, 0xbe, 0x6d, 0x33, 0x68, 0xbe,
  0xef, 0x65, 0x0d, 0x3e, 0x29, 0xa4, 0xed, 0xbd, 0xc7, 0x59, 0xee, 0xbd,
  0x82, 0xc6, 0x6f, 0xbd, 0x39, 0x8a, 0x04, 0xbe, 0xe4, 0xf3, 0x03, 0xbe,
  0x5b, 0x20, 0xc1, 0x3c, 0xd9, 0xf1, 0x87, 0xbe, 0x7d, 0xbc, 0x5a, 0xbc,
  0xa4, 0x09, 0x82, 0x3e, 0x95, 0x77, 0x45, 0xbe, 0x2d, 0x30, 0xf9, 0x3d,
  0xdd, 0x30, 0x2c, 0xbe, 0x31, 0x21, 0x1b, 0x3e, 0x6e, 0x50, 0x47, 0xbe,
  0x9f, 0x5d, 0x43, 0x3c, 0xe0, 0x6e, 0x39, 0x3c, 0x4e, 0x59, 0x0d, 0x3e,
  0x9e, 0x21, 0x19, 0x3c, 0x6d, 0xd6, 0xea, 0xbe, 0x6b, 0xf5, 0xbb, 0xbd,
  0xbe, 0x0f, 0x08, 0x3e, 0xc3, 0x4d, 0x81, 0xbe, 0x4d, 0x51, 0xbb, 0x3d,
  0x10, 0x4f, 0x91, 0x3d, 0x79, 0xe1, 0x75, 0x3e, 0x04, 0x38, 0xa1, 0xbd,
  0xc1, 0xe0, 0xbe, 0xbe, 0x50, 0x2a, 0xf1, 0xbd, 0x74, 0x9d, 0x0c, 0xbe,
  0x0b, 0x2e, 0xbf, 0x3d, 0xec, 0xf2, 0x18, 0xbe, 0xed, 0xe2, 0xdc, 0xbc,
  0x45, 0x35, 0x73, 0xbd, 0xd2, 0xde, 0x5a, 0xbc, 0x16, 0xc4, 0xfe, 0x3c,
  0x9c, 0xc9, 0x91, 0x3e, 0x54, 0x06, 0xa2, 0x3c, 0xed, 0x2e, 0x52, 0xbe,
  0xd2, 0x00, 0xac, 0x3d, 0xfe, 0x63, 0x52, 0x3e, 0xa5, 0xf3, 0xed, 0xbc,
  0xbb, 0x46, 0xc3, 0xbc, 0xf3, 0xfc, 0xdc, 0x3e, 0x7a, 0x28, 0x18, 0x3e,
  0x20, 0xa9, 0x53, 0xbe, 0x57, 0x7b, 0x0c, 0x3e, 0x3c, 0xeb, 0x10, 0x3d,
  0xf8, 0xe4, 0x81, 0x3e, 0xc6, 0xb2, 0x0c, 0x3e, 0x70, 0xf5, 0x98, 0x3e,
  0x2e, 0x39, 0x16, 0xbe, 0x93, 0x97, 0xf2, 0xbd, 0xbc, 0xa5, 0xab, 0xbe,
  0x76, 0x86, 0x94, 0x3d, 0x5e, 0x33, 0x3c, 0xbe, 0x1a, 0x7f, 0x9b, 0xbd,
  0xa9, 0xf6, 0xba, 0x3e, 0x8f, 0x17, 0x18, 0xbc, 0xae, 0x83, 0x89, 0x3c,
  0x60, 0x10, 0x83, 0xbd, 0x2d, 0x59, 0x21, 0x3e, 0x67, 0x03, 0xb0, 0xbd,
  0x7c, 0xe7, 0xc7, 0xbd, 0xf6, 0x1b, 0x4e, 0x3d, 0xed, 0xce, 0x70, 0xbd,
  0x07, 0x14, 0xf9, 0x3e, 0xea, 0xed, 0x1b, 0xbd, 0x16, 0x06, 0x4a, 0xbc,
  0xc0, 0x2c, 0x12, 0xbe, 0xe9, 0x09, 0xed, 0x3d, 0x77, 0x37, 0x3c, 0x3e,
  0xea, 0xd2, 0x9f, 0x3d, 0x8f, 0x5a, 0x8f, 0xbe, 0x4f, 0x77, 0xaf, 0x3c,
  0x3d, 0x65, 0x0f, 0x3e, 0x0e, 0xcd, 0x7c, 0xbd, 0x10, 0x0d, 0xf6, 0xbc,
  0x60, 0xa5, 0xbe, 0x3d, 0x2c, 0x30, 0xcf, 0xbe, 0x7a, 0xa1, 0x31, 0x3e,
  0xeb, 0x1d, 0x20, 0x3e, 0x70, 0xab, 0x31, 0x3d, 0xc7, 0x92, 0xf8, 0xbb,
  0x15, 0x91, 0xf6, 0xbe, 0xec, 0xa4, 0x58, 0x3e, 0xc9, 0x95, 0x43, 0xbe,
  0x36, 0x81, 0x2c, 0xbe, 0x0a, 0x46, 0xe4, 0xbc, 0x56, 0x7d, 0x01, 0xbd,
  0xc9, 0x05, 0xc9, 0x3d, 0x6e, 0x04, 0xe1, 0x3d, 0x9d, 0x05, 0x68, 0x3d,
  0xb6, 0x7f, 0x5e, 0xbe, 0x9d, 0x06, 0xf9, 0x3d, 0xf5, 0xf3, 0xbc, 0x3e,
  0x67, 0x31, 0x90, 0x3e, 0x9f, 0xde, 0xd1, 0xbe, 0x81, 0x8f, 0x30, 0xbe,
  0xba, 0x84, 0x6f, 0x3e, 0x78, 0xa5, 0x23, 0xbe, 0x31, 0xe9, 0x53, 0xbd,
  0xab, 0x37, 0x63, 0xbe, 0x18, 0x1f, 0x09, 0x3d, 0xf5, 0x78, 0x8d, 0x3d,
  0x92, 0x2b, 0x0b, 0xbc, 0x84, 0xc5, 0x27, 0xbe, 0x36, 0x69, 0x5f, 0xbe,
  0x93, 0x71, 0x3d, 0xbe, 0x96, 0x39, 0xe4, 0xbc, 0x32, 0x7b, 0xe7, 0x3c,
  0x6d, 0x8f, 0xee, 0xbc, 0x0c, 0x6e, 0x47, 0x3e, 0x28, 0x41, 0x28, 0xbe,
  0x98, 0xcb, 0x1c, 0xbd, 0x61, 0x68, 0x08, 0x3e, 0xef, 0xb4, 0x1b, 0x3d,
  0x25, 0xb3, 0xa1, 0xbd, 0x26, 0x9f, 0x30, 0x3d, 0x30, 0x46, 0xed, 0x3d,
  0x01, 0xdc, 0xc8, 0xbc, 0x14, 0x59, 0x31, 0x3e, 0x42, 0xa0, 0x3d, 0xbd,
  0xd1, 0x48, 0x94, 0x3c, 0x88, 0x59, 0xac, 0xbc, 0xb0, 0x15, 0x06, 0xbd,
  0x9c, 0x85, 0xa2, 0x3d, 0xa9, 0x09, 0xa5, 0x3d, 0x2a, 0x91, 0xa2, 0xbe,
  0x95, 0x1b, 0x95, 0x3d, 0xef, 0x0a, 0xa7, 0xba, 0x79, 0xb8, 0x66, 0x3e,
  0x16, 0x98, 0xe8, 0xbd, 0x6b, 0x9f, 0xfb, 0xbd, 0xab, 0xff, 0xc5, 0x3c,
  0x46, 0xb8, 0x04, 0xbd, 0x2d, 0x35, 0x07, 0xbe, 0x01, 0x89, 0xaa, 0x3d,
  0xb8, 0x3f, 0x8d, 0x3d, 0x51, 0xfa, 0x2a, 0x3e, 0xd5, 0x75, 0x2f, 0xbb,
  0xd9, 0xf4, 0x2b, 0x3d, 0x90, 0x57, 0x8b, 0x3e, 0x59, 0x88, 0x7c, 0xbd,
  0x2b, 0xb9, 0x17, 0x3e, 0x4f, 0x38, 0x98, 0xbe, 0xd2, 0xfa, 0x4f, 0xbe,
  0x57, 0x5b, 0xab, 0x3e, 0x1e, 0xc6, 0x93, 0xbd, 0x6b, 0xaf, 0x6a, 0x3e,
  0x13, 0x79, 0x98, 0xbd, 0xdc, 0xad, 0xb7, 0xbe, 0xe1, 0x1f, 0xb5, 0x3d,
  0xfe, 0x1a, 0x05, 0xbd, 0x6f, 0xfc, 0x3a, 0xbe, 0x24, 0xf6, 0x04, 0xbd,
  0x49, 0x93, 0x60, 0xbe, 0x25, 0x19, 0x2c, 0x3e, 0x9f, 0xb6, 0x93, 0x3d,
  0x3f, 0x8f, 0x99, 0x3d, 0x9b, 0x52, 0x3b, 0x3e, 0x69, 0xf3, 0xc5, 0x3c,
  0xf5, 0x94, 0x67, 0x3e, 0x50, 0x73, 0x2c, 0xbe, 0xd2, 0xa3, 0x00, 0x3e,
  0x69, 0x6f, 0x12, 0x3e, 0xe2, 0xd4, 0x87, 0xbe, 0xa0, 0x88, 0xf5, 0x3d,
  0x5f, 0x76, 0xca, 0xbe, 0xb9, 0x67, 0xc9, 0x3e, 0xe3, 0x24, 0xf0, 0x3d,
  0xd1, 0x21, 0x0e, 0xbe, 0x16, 0xc1, 0xb7, 0x3d, 0x39, 0x61, 0x5d, 0x3b,
  0xf8, 0x18, 0xa8, 0x3d, 0x2c, 0xba, 0xce, 0xbc, 0x44, 0x15, 0x15, 0xbd,
  0xd2, 0xf7, 0xae, 0xbc, 0x00, 0x6d, 0x9f, 0x3e, 0x85, 0x88, 0xfc, 0x3b,
  0x17, 0x14, 0x26, 0x3e, 0xb1, 0x0d, 0xe1, 0xbe, 0x65, 0x2c, 0x64, 0x3e,
  0x93, 0xd9, 0x01, 0x3d, 0x2f, 0xdb, 0x24, 0x3e, 0x8a, 0xaa, 0xdc, 0x3c,
  0xa1, 0x17, 0xe4, 0x3d, 0x7c, 0x2f, 0xea, 0x3e, 0x8f, 0xfc, 0x88, 0x3d,
  0xec, 0x93, 0x34, 0x3e, 0x6b, 0xf6, 0xb6, 0x3e, 0x12, 0x25, 0x7d, 0xbd,
  0xbd, 0xb9, 0xa2, 0x3d, 0xcd, 0x90, 0x90, 0xbe, 0x4e, 0x66, 0x36, 0xbc,
  0xd2, 0xb7, 0x99, 0x3e, 0x36, 0x82, 0xb3, 0xbe, 0x06, 0x1f, 0x5a, 0xbe,
  0x28, 0x99, 0x1f, 0x3e, 0x20, 0x10, 0x1b, 0xbe, 0xd9, 0xc4, 0x1e, 0xbe,
  0x75, 0xc8, 0x69, 0xbe, 0x17, 0x71, 0x8f, 0x3d, 0x74, 0x94, 0x70, 0xbc,
  0x67, 0x4d, 0x55, 0x3c, 0xf7, 0x42, 0xe6, 0x3e, 0x55, 0x34, 0x04, 0xbe,
  0x57, 0x26, 0x05, 0xbe, 0x96, 0xe7, 0x62, 0xbe, 0xc1, 0x9f, 0xf0, 0x3e,
  0x90, 0xe8, 0x2f, 0xbe, 0xe3, 0xed, 0x3e, 0xbe, 0xa3, 0xcb, 0x69, 0xbc,
  0x65, 0x44, 0xf4, 0xbd, 0xfd, 0x5e, 0xe0, 0xbe, 0x19, 0x22, 0x0c, 0xbd,
  0xea, 0x9b, 0x83, 0xbe, 0xba, 0xbd, 0x2d, 0x3e, 0x47, 0xf7, 0x52, 0x3c,
  0x87, 0x9e, 0x1b, 0x3e, 0x65, 0x2d, 0x56, 0x3e, 0x8f, 0xc5, 0x39, 0x3d,
  0x5c, 0x12, 0x80, 0x3e, 0xbd, 0xbf, 0xac, 0x3c, 0xa9, 0xc9, 0x33, 0xbe,
  0x87, 0xb9, 0x6b, 0xbe, 0xf6, 0x17, 0x92, 0x3d, 0x17, 0x02, 0x32, 0xbe,
  0x44, 0x80, 0x65, 0x3e, 0x6a, 0x55, 0x7f, 0x3c, 0x4d, 0x12, 0x2f, 0x3d,
  0x37, 0xfd, 0x4b, 0xbd, 0x1d, 0x3a, 0xd7, 0xbc, 0x78, 0x49, 0x1f, 0x3e,
  0xaf, 0x50, 0xd4, 0x3e, 0xc0, 0x6b, 0x9e, 0x3e, 0x37, 0xff, 0x75, 0xbe,
  0x8e, 0x03, 0x56, 0xbd, 0x00, 0x94, 0x9c, 0x3e, 0x3f, 0xc9, 0x3d, 0xbd,
  0xd0, 0x8f, 0x22, 0x3e, 0xf0, 0xa8, 0x5d, 0xbe, 0x08, 0xa3, 0xc1, 0xbd,
  0xa5, 0x82, 0xaf, 0x3d, 0x9f, 0x4c, 0x8f, 0x3d, 0xe8, 0xdb, 0x84, 0xbc,
  0x27, 0xc2, 0x12, 0x3d, 0x6f, 0xc1, 0xb6, 0x3e, 0x5a, 0x97, 0x16, 0xbe,
  0x5b, 0xc4, 0x55, 0xbe, 0xcb, 0x87, 0x93, 0x3e, 0x2e, 0x2e, 0x37, 0x3c,
  0xf3, 0x88, 0xa2, 0x3e, 0xe2, 0xaf, 0xd2, 0xbe, 0x74, 0xc0, 0xdf, 0xbc,
  0xee, 0xe9, 0x22, 0x3e, 0x44, 0x66, 0xb2, 0xbe, 0x0b, 0x73, 0x14, 0xbe,
  0x79, 0x31, 0x32, 0xbe, 0xa9, 0xd3, 0x0d, 0xbe, 0x2b, 0xc3, 0x93, 0x3c,
  0x25, 0x74, 0xfa, 0x3d, 0xc1, 0xae, 0xbd, 0xbe, 0x24, 0xe1, 0xf8, 0x3e,
  0xf7, 0x68, 0xe0, 0xbd, 0x94, 0x73, 0xad, 0x3e, 0xe0, 0x50, 0x4c, 0xbe,
  0x3d, 0x1e, 0xb5, 0xbe, 0x6b, 0x38, 0xe3, 0x3e, 0x86, 0x89, 0x6b, 0x3e,
  0x1d, 0x4e, 0xbc, 0x3d, 0xff, 0x48, 0xa7, 0xbe, 0x7e, 0x4e, 0x55, 0xbc,
  0x37, 0x17, 0x9c, 0xbd, 0x26, 0x59, 0x27, 0xbd, 0x9f, 0xbe, 0x37, 0xbe,
  0x41, 0x8f, 0x70, 0xbe, 0x24, 0xac, 0x88, 0x3e, 0x2d, 0x04, 0x7f, 0xbd,
  0xb3, 0x41, 0xb3, 0xbe, 0x96, 0x06, 0x94, 0xbd, 0xf4, 0x9a, 0xff, 0xff,
  0xf8, 0x9a, 0xff, 0xff, 0xb6, 0xe5, 0xff, 0xff, 0x04, 0x00, 0x00, 0x00,
  0x04, 0x00, 0x00, 0x00, 0x01, 0x00, 0x00, 0x00, 0xc6, 0xe5, 0xff, 0xff,
  0x04, 0x00, 0x00, 0x00, 0x0c, 0x00, 0x00, 0x00, 0x01, 0x00, 0x00, 0x00,
  0x00, 0x00, 0x00, 0x00, 0x02, 0x00, 0x00, 0x00, 0xde, 0xe5, 0xff, 0xff,
  0x04, 0x00, 0x00, 0x00, 0x04, 0x00, 0x00, 0x00, 0x00, 0x00, 0x00, 0x00,
  0xee, 0xe5, 0xff, 0xff, 0x04, 0x00, 0x00, 0x00, 0x04, 0x00, 0x00, 0x00,
  0x0c, 0x00, 0x00, 0x00, 0xfe, 0xe5, 0xff, 0xff, 0x04, 0x00, 0x00, 0x00,
  0x20, 0x00, 0x00, 0x00, 0xcb, 0x1b, 0xa8, 0xba, 0xce, 0x6e, 0x09, 0xbd,
  0x08, 0xfb, 0xea, 0x3d, 0xe1, 0xcd, 0xfd, 0xbc, 0xec, 0x4d, 0xcf, 0x3d,
  0xa0, 0xd4, 0x5d, 0x3d, 0x26, 0x4d, 0xea, 0x3d, 0x96, 0xc4, 0x45, 0x3e,
  0x2a, 0xe6, 0xff, 0xff, 0x04, 0x00, 0x00, 0x00, 0x04, 0x00, 0x00, 0x00,
  0xc8, 0x27, 0x5b, 0x3d, 0x3a, 0xe6, 0xff, 0xff, 0x04, 0x00, 0x00, 0x00,
  0xc0, 0x00, 0x00, 0x00, 0x8f, 0xe1, 0x06, 0x3e, 0x95, 0x97, 0x5a, 0x3c,
  0xc4, 0xa8, 0x49, 0x3e, 0xeb, 0x07, 0x16, 0xbd, 0x66, 0x90, 0xdd, 0x3d,
  0x64, 0xcd, 0x09, 0x3d, 0x2d, 0x4b, 0xa3, 0xbc, 0xbc, 0xf3, 0x4e, 0x3e,
  0xd4, 0x62, 0x4f, 0x3e, 0xc6, 0x3e, 0x3d, 0xbb, 0x0f, 0x26, 0x39, 0xbd,
  0xf1, 0x4c, 0x2e, 0x3e, 0xd8, 0x1b, 0x87, 0x3f, 0xb1, 0xf2, 0x8d, 0x3f,
  0x1c, 0x26, 0x5a, 0x3f, 0x1b, 0x35, 0x7b, 0x3f, 0x28, 0x01, 0x8c, 0x3f,
  0x2e, 0xf8, 0x67, 0x3f, 0xd2, 0x14, 0x88, 0x3f, 0x70, 0x26, 0x59, 0x3f,
  0xdf, 0x52, 0x26, 0x3f, 0x74, 0x6c, 0x5f, 0x3f, 0x84, 0x67, 0x5e, 0x3f,
  0xb6, 0xc6, 0x5d, 0x3f, 0x09, 0xf3, 0x27, 0x3d, 0x28, 0xea, 0xb7, 0x3b,
  0x1e, 0xa4, 0xb7, 0x3c, 0xd1, 0xe6, 0xed, 0xbc, 0x82, 0xde, 0x55, 0x3d,
  0x34, 0xdd, 0x21, 0x3d, 0xde, 0x44, 0x8d, 0x3d, 0x5e, 0xc3, 0x21, 0xbd,
  0x2a, 0x43, 0x0f, 0x3e, 0x90, 0x3d, 0x83, 0xbd, 0xf0, 0x5e, 0x54, 0x3e,
  0x5b, 0xa4, 0xac, 0xbd, 0xdd, 0x1f, 0x5a, 0x3e, 0xa0, 0xfb, 0x38, 0xbc,
  0xd8, 0x4b, 0x84, 0xbc, 0xc4, 0x10, 0x67, 0x3d, 0x3c, 0x99, 0x5d, 0x3e,
  0x3a, 0x07, 0x87, 0x3c, 0xcf, 0x1a, 0xe5, 0xbd, 0x3a, 0xbb, 0x7f, 0x3e,
  0x86, 0xe5, 0x9d, 0x3e, 0xa8, 0xc2, 0x7e, 0x3d, 0x5b, 0xae, 0x4b, 0xbe,
  0xbd, 0xe4, 0x01, 0x3e, 0x4c, 0x9c, 0xff, 0xff, 0x50, 0x9c, 0xff, 0xff,
  0x0f, 0x00, 0x00, 0x00, 0x4d, 0x4c, 0x49, 0x52, 0x20, 0x43, 0x6f, 0x6e,
  0x76, 0x65, 0x72, 0x74, 0x65, 0x64, 0x2e, 0x00, 0x01, 0x00, 0x00, 0x00,
  0x14, 0x00, 0x00, 0x00, 0x00, 0x00, 0x0e, 0x00, 0x18, 0x00, 0x14, 0x00,
  0x10, 0x00, 0x0c, 0x00, 0x08, 0x00, 0x04, 0x00, 0x0e, 0x00, 0x00, 0x00,
  0x14, 0x00, 0x00, 0x00, 0x1c, 0x00, 0x00, 0x00, 0xc8, 0x19, 0x00, 0x00,
  0xcc, 0x19, 0x00, 0x00, 0xd0, 0x19, 0x00, 0x00, 0x04, 0x00, 0x00, 0x00,
  0x6d, 0x61, 0x69, 0x6e, 0x00, 0x00, 0x00, 0x00, 0x86, 0x00, 0x00, 0x00,
  0x78, 0x19, 0x00, 0x00, 0x18, 0x19, 0x00, 0x00, 0xe0, 0x18, 0x00, 0x00,
  0x78, 0x18, 0x00, 0x00, 0x40, 0x18, 0x00, 0x00, 0x18, 0x18, 0x00, 0x00,
  0xe0, 0x17, 0x00, 0x00, 0xa8, 0x17, 0x00, 0x00, 0x74, 0x17, 0x00, 0x00,
  0x40, 0x17, 0x00, 0x00, 0xfc, 0x16, 0x00, 0x00, 0xd8, 0x16, 0x00, 0x00,
  0xb4, 0x16, 0x00, 0x00, 0x80, 0x16, 0x00, 0x00, 0x5c, 0x16, 0x00, 0x00,
  0x38, 0x16, 0x00, 0x00, 0x04, 0x16, 0x00, 0x00, 0xd0, 0x15, 0x00, 0x00,
  0xac, 0x15, 0x00, 0x00, 0x78, 0x15, 0x00, 0x00, 0x40, 0x15, 0x00, 0x00,
  0x08, 0x15, 0x00, 0x00, 0xd0, 0x14, 0x00, 0x00, 0x98, 0x14, 0x00, 0x00,
  0x60, 0x14, 0x00, 0x00, 0x28, 0x14, 0x00, 0x00, 0xf4, 0x13, 0x00, 0x00,
  0xc0, 0x13, 0x00, 0x00, 0x7c, 0x13, 0x00, 0x00, 0x58, 0x13, 0x00, 0x00,
  0x34, 0x13, 0x00, 0x00, 0x00, 0x13, 0x00, 0x00, 0xdc, 0x12, 0x00, 0x00,
  0xb8, 0x12, 0x00, 0x00, 0x84, 0x12, 0x00, 0x00, 0x50, 0x12, 0x00, 0x00,
  0x2c, 0x12, 0x00, 0x00, 0xf8, 0x11, 0x00, 0x00, 0xc0, 0x11, 0x00, 0x00,
  0x88, 0x11, 0x00, 0x00, 0x54, 0x11, 0x00, 0x00, 0x20, 0x11, 0x00, 0x00,
  0xdc, 0x10, 0x00, 0x00, 0xb8, 0x10, 0x00, 0x00, 0x94, 0x10, 0x00, 0x00,
  0x60, 0x10, 0x00, 0x00, 0x3c, 0x10, 0x00, 0x00, 0x18, 0x10, 0x00, 0x00,
  0xe4, 0x0f, 0x00, 0x00, 0xb0, 0x0f, 0x00, 0x00, 0x8c, 0x0f, 0x00, 0x00,
  0x58, 0x0f, 0x00, 0x00, 0x20, 0x0f, 0x00, 0x00, 0xe8, 0x0e, 0x00, 0x00,
  0xb4, 0x0e, 0x00, 0x00, 0x80, 0x0e, 0x00, 0x00, 0x3c, 0x0e, 0x00, 0x00,
  0x18, 0x0e, 0x00, 0x00, 0xe4, 0x0d, 0x00, 0x00, 0xc0, 0x0d, 0x00, 0x00,
  0x9c, 0x0d, 0x00, 0x00, 0x78, 0x0d, 0x00, 0x00, 0x44, 0x0d, 0x00, 0x00,
  0x10, 0x0d, 0x00, 0x00, 0xec, 0x0c, 0x00, 0x00, 0xb8, 0x0c, 0x00, 0x00,
  0x80, 0x0c, 0x00, 0x00, 0x48, 0x0c, 0x00, 0x00, 0x14, 0x0c, 0x00, 0x00,
  0xe0, 0x0b, 0x00, 0x00, 0x9c, 0x0b, 0x00, 0x00, 0x78, 0x0b, 0x00, 0x00,
  0x54, 0x0b, 0x00, 0x00, 0x20, 0x0b, 0x00, 0x00, 0xfc, 0x0a, 0x00, 0x00,
  0xd8, 0x0a, 0x00, 0x00, 0xa4, 0x0a, 0x00, 0x00, 0x70, 0x0a, 0x00, 0x00,
  0x4c, 0x0a, 0x00, 0x00, 0x18, 0x0a, 0x00, 0x00, 0xe0, 0x09, 0x00, 0x00,
  0xac, 0x09, 0x00, 0x00, 0x78, 0x09, 0x00, 0x00, 0x34, 0x09, 0x00, 0x00,
  0x10, 0x09, 0x00, 0x00, 0xec, 0x08, 0x00, 0x00, 0xc8, 0x08, 0x00, 0x00,
  0xa4, 0x08, 0x00, 0x00, 0x70, 0x08, 0x00, 0x00, 0x3c, 0x08, 0x00, 0x00,
  0x08, 0x08, 0x00, 0x00, 0xe4, 0x07, 0x00, 0x00, 0xb0, 0x07, 0x00, 0x00,
  0x78, 0x07, 0x00, 0x00, 0x44, 0x07, 0x00, 0x00, 0x10, 0x07, 0x00, 0x00,
  0xcc, 0x06, 0x00, 0x00, 0xa8, 0x06, 0x00, 0x00, 0x84, 0x06, 0x00, 0x00,
  0x60, 0x06, 0x00, 0x00, 0x3c, 0x06, 0x00, 0x00, 0x08, 0x06, 0x00, 0x00,
  0xd4, 0x05, 0x00, 0x00, 0xa0, 0x05, 0x00, 0x00, 0x7c, 0x05, 0x00, 0x00,
  0x48, 0x05, 0x00, 0x00, 0x10, 0x05, 0x00, 0x00, 0xdc, 0x04, 0x00, 0x00,
  0xa8, 0x04, 0x00, 0x00, 0x64, 0x04, 0x00, 0x00, 0x40, 0x04, 0x00, 0x00,
  0x1c, 0x04, 0x00, 0x00, 0xf8, 0x03, 0x00, 0x00, 0xd4, 0x03, 0x00, 0x00,
  0xa0, 0x03, 0x00, 0x00, 0x6c, 0x03, 0x00, 0x00, 0x38, 0x03, 0x00, 0x00,
  0x14, 0x03, 0x00, 0x00, 0xe0, 0x02, 0x00, 0x00, 0xa8, 0x02, 0x00, 0x00,
  0x74, 0x02, 0x00, 0x00, 0x40, 0x02, 0x00, 0x00, 0xfc, 0x01, 0x00, 0x00,
  0xd8, 0x01, 0x00, 0x00, 0xb4, 0x01, 0x00, 0x00, 0x90, 0x01, 0x00, 0x00,
  0x6c, 0x01, 0x00, 0x00, 0x38, 0x01, 0x00, 0x00, 0x04, 0x01, 0x00, 0x00,
  0xd0, 0x00, 0x00, 0x00, 0xac, 0x00, 0x00, 0x00, 0x78, 0x00, 0x00, 0x00,
  0x3c, 0x00, 0x00, 0x00, 0x04, 0x00, 0x00, 0x00, 0x0a, 0xe9, 0xff, 0xff,
  0x14, 0x00, 0x00, 0x00, 0x00, 0x00, 0x00, 0x08, 0x10, 0x00, 0x00, 0x00,
  0x14, 0x00, 0x00, 0x00, 0x06, 0x00, 0x00, 0x00, 0xd8, 0x9e, 0xff, 0xff,
  0x01, 0x00, 0x00, 0x00, 0xb6, 0x00, 0x00, 0x00, 0x03, 0x00, 0x00, 0x00,
  0xb5, 0x00, 0x00, 0x00, 0x0d, 0x00, 0x00, 0x00, 0x02, 0x00, 0x00, 0x00,
  0x3e, 0xe9, 0xff, 0xff, 0x14, 0x00, 0x00, 0x00, 0x00, 0x00, 0x00, 0x08,
  0x14, 0x00, 0x00, 0x00, 0x18, 0x00, 0x00, 0x00, 0x06, 0x00, 0x00, 0x00,
  0xd6, 0xe8, 0xff, 0xff, 0x00, 0x00, 0x00, 0x01, 0x01, 0x00, 0x00, 0x00,
  0xb5, 0x00, 0x00, 0x00, 0x03, 0x00, 0x00, 0x00, 0xb4, 0x00, 0x00, 0x00,
  0x0c, 0x00, 0x00, 0x00, 0x03, 0x00, 0x00, 0x00, 0x76, 0xe9, 0xff, 0xff,
  0x14, 0x00, 0x00, 0x00, 0x00, 0x00, 0x00, 0x15, 0x10, 0x00, 0x00, 0x00,
  0x14, 0x00, 0x00, 0x00, 0x0a, 0x00, 0x00, 0x00, 0x44, 0x9f, 0xff, 0xff,
  0x01, 0x00, 0x00, 0x00, 0xb4, 0x00, 0x00, 0x00, 0x02, 0x00, 0x00, 0x00,
  0xae, 0x00, 0x00, 0x00, 0xb3, 0x00, 0x00, 0x00, 0xd6, 0xe9, 0xff, 0xff,
  0x0c, 0x00, 0x00, 0x00, 0x10, 0x00, 0x00, 0x00, 0x0b, 0x00, 0x00, 0x00,
  0x01, 0x00, 0x00, 0x00, 0xb3, 0x00, 0x00, 0x00, 0x01, 0x00, 0x00, 0x00,
  0xb2, 0x00, 0x00, 0x00, 0xc6, 0xe9, 0xff, 0xff, 0x14, 0x00, 0x00, 0x00,
  0x00, 0x00, 0x00, 0x0b, 0x10, 0x00, 0x00, 0x00, 0x14, 0x00, 0x00, 0x00,
  0x07, 0x00, 0x00, 0x00, 0x94, 0x9f, 0xff, 0xff, 0x01, 0x00, 0x00, 0x00,
  0xb2, 0x00, 0x00, 0x00, 0x02, 0x00, 0x00, 0x00, 0xb1, 0x00, 0x00, 0x00,
  0xb0, 0x00, 0x00, 0x00, 0xf6, 0xe9, 0xff, 0xff, 0x14, 0x00, 0x00, 0x00,
  0x00, 0x00, 0x00, 0x15, 0x10, 0x00, 0x00, 0x00, 0x14, 0x00, 0x00, 0x00,
  0x0a, 0x00, 0x00, 0x00, 0xc4, 0x9f, 0xff, 0xff, 0x01, 0x00, 0x00, 0x00,
  0xb1, 0x00, 0x00, 0x00, 0x02, 0x00, 0x00, 0x00, 0xad, 0x00, 0x00, 0x00,
  0xa2, 0x00, 0x00, 0x00, 0x26, 0xea, 0xff, 0xff, 0x14, 0x00, 0x00, 0x00,
  0x00, 0x00, 0x00, 0x15, 0x10, 0x00, 0x00, 0x00, 0x14, 0x00, 0x00, 0x00,
  0x0a, 0x00, 0x00, 0x00, 0xf4, 0x9f, 0xff, 0xff, 0x01, 0x00, 0x00, 0x00,
  0xb0, 0x00, 0x00, 0x00, 0x02, 0x00, 0x00, 0x00, 0xac, 0x00, 0x00, 0x00,
  0xaf, 0x00, 0x00, 0x00, 0x86, 0xea, 0xff, 0xff, 0x0c, 0x00, 0x00, 0x00,
  0x10, 0x00, 0x00, 0x00, 0x0b, 0x00, 0x00, 0x00, 0x01, 0x00, 0x00, 0x00,
  0xaf, 0x00, 0x00, 0x00, 0x01, 0x00, 0x00, 0x00, 0xaa, 0x00, 0x00, 0x00,
  0xa6, 0xea, 0xff, 0xff, 0x0c, 0x00, 0x00, 0x00, 0x10, 0x00, 0x00, 0x00,
  0x09, 0x00, 0x00, 0x00, 0x01, 0x00, 0x00, 0x00, 0xae, 0x00, 0x00, 0x00,
  0x01, 0x00, 0x00, 0x00, 0xab, 0x00, 0x00, 0x00, 0xc6, 0xea, 0xff, 0xff,
  0x0c, 0x00, 0x00, 0x00, 0x10, 0x00, 0x00, 0x00, 0x09, 0x00, 0x00, 0x00,
  0x01, 0x00, 0x00, 0x00, 0xad, 0x00, 0x00, 0x00, 0x01, 0x00, 0x00, 0x00,
  0xa9, 0x00, 0x00, 0x00, 0xe6, 0xea, 0xff, 0xff, 0x0c, 0x00, 0x00, 0x00,
  0x10, 0x00, 0x00, 0x00, 0x09, 0x00, 0x00, 0x00, 0x01, 0x00, 0x00, 0x00,
  0xac, 0x00, 0x00, 0x00, 0x01, 0x00, 0x00, 0x00, 0xa8, 0x00, 0x00, 0x00,
  0xd6, 0xea, 0xff, 0xff, 0x14, 0x00, 0x00, 0x00, 0x00, 0x00, 0x00, 0x23,
  0x14, 0x00, 0x00, 0x00, 0x24, 0x00, 0x00, 0x00, 0x08, 0x00, 0x00, 0x00,
  0x5e, 0xeb, 0xff, 0xff, 0x04, 0x00, 0x00, 0x00, 0x04, 0x00, 0x00, 0x00,
  0xa8, 0x00, 0x00, 0x00, 0xa9, 0x00, 0x00, 0x00, 0xaa, 0x00, 0x00, 0x00,
  0xab, 0x00, 0x00, 0x00, 0x02, 0x00, 0x00, 0x00, 0x09, 0x00, 0x00, 0x00,
  0xa7, 0x00, 0x00, 0x00, 0x16, 0xeb, 0xff, 0xff, 0x14, 0x00, 0x00, 0x00,
  0x00, 0x00, 0x00, 0x0b, 0x10, 0x00, 0x00, 0x00, 0x14, 0x00, 0x00, 0x00,
  0x07, 0x00, 0x00, 0x00, 0xe4, 0xa0, 0xff, 0xff, 0x01, 0x00, 0x00, 0x00,
  0xa7, 0x00, 0x00, 0x00, 0x02, 0x00, 0x00, 0x00, 0xa6, 0x00, 0x00, 0x00,
  0x01, 0x00, 0x00, 0x00, 0x46, 0xeb, 0xff, 0xff, 0x14, 0x00, 0x00, 0x00,
  0x00, 0x00, 0x00, 0x0b, 0x10, 0x00, 0x00, 0x00, 0x14, 0x00, 0x00, 0x00,
  0x07, 0x00, 0x00, 0x00, 0x14, 0xa1, 0xff, 0xff, 0x01, 0x00, 0x00, 0x00,
  0xa6, 0x00, 0x00, 0x00, 0x02, 0x00, 0x00, 0x00, 0x31, 0x00, 0x00, 0x00,
  0xa5, 0x00, 0x00, 0x00, 0x76, 0xeb, 0xff, 0xff, 0x14, 0x00, 0x00, 0x00,
  0x00, 0x00, 0x00, 0x08, 0x10, 0x00, 0x00, 0x00, 0x14, 0x00, 0x00, 0x00,
  0x06, 0x00, 0x00, 0x00, 0x44, 0xa1, 0xff, 0xff, 0x01, 0x00, 0x00, 0x00,
  0xa5, 0x00, 0x00, 0x00, 0x03, 0x00, 0x00, 0x00, 0xa4, 0x00, 0x00, 0x00,
  0x0a, 0x00, 0x00, 0x00, 0xff, 0xff, 0xff, 0xff, 0xaa, 0xeb, 0xff, 0xff,
  0x14, 0x00, 0x00, 0x00, 0x00, 0x00, 0x00, 0x15, 0x10, 0x00, 0x00, 0x00,
  0x14, 0x00, 0x00, 0x00, 0x0a, 0x00, 0x00, 0x00, 0x78, 0xa1, 0xff, 0xff,
  0x01, 0x00, 0x00, 0x00, 0xa4, 0x00, 0x00, 0x00, 0x02, 0x00, 0x00, 0x00,
  0x9e, 0x00, 0x00, 0x00, 0xa3, 0x00, 0x00, 0x00, 0x0a, 0xec, 0xff, 0xff,
  0x0c, 0x00, 0x00, 0x00, 0x10, 0x00, 0x00, 0x00, 0x0b, 0x00, 0x00, 0x00,
  0x01, 0x00, 0x00, 0x00, 0xa3, 0x00, 0x00, 0x00, 0x01, 0x00, 0x00, 0x00,
  0xa2, 0x00, 0x00, 0x00, 0xfa, 0xeb, 0xff, 0xff, 0x14, 0x00, 0x00, 0x00,
  0x00, 0x00, 0x00, 0x0b, 0x10, 0x00, 0x00, 0x00, 0x14, 0x00, 0x00, 0x00,
  0x07, 0x00, 0x00, 0x00, 0xc8, 0xa1, 0xff, 0xff, 0x01, 0x00, 0x00, 0x00,
  0xa2, 0x00, 0x00, 0x00, 0x02, 0x00, 0x00, 0x00, 0xa1, 0x00, 0x00, 0x00,
  0xa0, 0x00, 0x00, 0x00, 0x2a, 0xec, 0xff, 0xff, 0x14, 0x00, 0x00, 0x00,
  0x00, 0x00, 0x00, 0x15, 0x10, 0x00, 0x00, 0x00, 0x14, 0x00, 0x00, 0x00,
  0x0a, 0x00, 0x00, 0x00, 0xf8, 0xa1, 0xff, 0xff, 0x01, 0x00, 0x00, 0x00,
  0xa1, 0x00, 0x00, 0x00, 0x02, 0x00, 0x00, 0x00, 0x9d, 0x00, 0x00, 0x00,
  0x92, 0x00, 0x00, 0x00, 0x5a, 0xec, 0xff, 0xff, 0x14, 0x00, 0x00, 0x00,
  0x00, 0x00, 0x00, 0x15, 0x10, 0x00, 0x00, 0x00, 0x14, 0x00, 0x00, 0x00,
  0x0a, 0x00, 0x00, 0x00, 0x28, 0xa2, 0xff, 0xff, 0x01, 0x00, 0x00, 0x00,
  0xa0, 0x00, 0x00, 0x00, 0x02, 0x00, 0x00, 0x00, 0x9c, 0x00, 0x00, 0x00,
  0x9f, 0x00, 0x00, 0x00, 0xba, 0xec, 0xff, 0xff, 0x0c, 0x00, 0x00, 0x00,
  0x10, 0x00, 0x00, 0x00, 0x0b, 0x00, 0x00, 0x00, 0x01, 0x00, 0x00, 0x00,
  0x9f, 0x00, 0x00, 0x00, 0x01, 0x00, 0x00, 0x00, 0x9a, 0x00, 0x00, 0x00,
  0xda, 0xec, 0xff, 0xff, 0x0c, 0x00, 0x00, 0x00, 0x10, 0x00, 0x00, 0x00,
  0x09, 0x00, 0x00, 0x00, 0x01, 0x00, 0x00, 0x00, 0x9e, 0x00, 0x00, 0x00,
  0x01, 0x00, 0x00, 0x00, 0x9b, 0x00, 0x00, 0x00, 0xfa, 0xec, 0xff, 0xff,
  0x0c, 0x00, 0x00, 0x00, 0x10, 0x00, 0x00, 0x00, 0x09, 0x00, 0x00, 0x00,
  0x01, 0x00, 0x00, 0x00, 0x9d, 0x00, 0x00, 0x00, 0x01, 0x00, 0x00, 0x00,
  0x99, 0x00, 0x00, 0x00, 0x1a, 0xed, 0xff, 0xff, 0x0c, 0x00, 0x00, 0x00,
  0x10, 0x00, 0x00, 0x00, 0x09, 0x00, 0x00, 0x00, 0x01, 0x00, 0x00, 0x00,
  0x9c, 0x00, 0x00, 0x00, 0x01, 0x00, 0x00, 0x00, 0x98, 0x00, 0x00, 0x00,
  0x0a, 0xed, 0xff, 0xff, 0x14, 0x00, 0x00, 0x00, 0x00, 0x00, 0x00, 0x23,
  0x14, 0x00, 0x00, 0x00, 0x24, 0x00, 0x00, 0x00, 0x08, 0x00, 0x00, 0x00,
  0x92, 0xed, 0xff, 0xff, 0x04, 0x00, 0x00, 0x00, 0x04, 0x00, 0x00, 0x00,
  0x98, 0x00, 0x00, 0x00, 0x99, 0x00, 0x00, 0x00, 0x9a, 0x00, 0x00, 0x00,
  0x9b, 0x00, 0x00, 0x00, 0x02, 0x00, 0x00, 0x00, 0x09, 0x00, 0x00, 0x00,
  0x97, 0x00, 0x00, 0x00, 0x4a, 0xed, 0xff, 0xff, 0x14, 0x00, 0x00, 0x00,
  0x00, 0x00, 0x00, 0x0b, 0x10, 0x00, 0x00, 0x00, 0x14, 0x00, 0x00, 0x00,
  0x07, 0x00, 0x00, 0x00, 0x18, 0xa3, 0xff, 0xff, 0x01, 0x00, 0x00, 0x00,
  0x97, 0x00, 0x00, 0x00, 0x02, 0x00, 0x00, 0x00, 0x96, 0x00, 0x00, 0x00,
  0x01, 0x00, 0x00, 0x00, 0x7a, 0xed, 0xff, 0xff, 0x14, 0x00, 0x00, 0x00,
  0x00, 0x00, 0x00, 0x0b, 0x10, 0x00, 0x00, 0x00, 0x14, 0x00, 0x00, 0x00,
  0x07, 0x00, 0x00, 0x00, 0x48, 0xa3, 0xff, 0xff, 0x01, 0x00, 0x00, 0x00,
  0x96, 0x00, 0x00, 0x00, 0x02, 0x00, 0x00, 0x00, 0x30, 0x00, 0x00, 0x00,
  0x95, 0x00, 0x00, 0x00, 0xaa, 0xed, 0xff, 0xff, 0x14, 0x00, 0x00, 0x00,
  0x00, 0x00, 0x00, 0x08, 0x10, 0x00, 0x00, 0x00, 0x14, 0x00, 0x00, 0x00,
  0x06, 0x00, 0x00, 0x00, 0x78, 0xa3, 0xff, 0xff, 0x01, 0x00, 0x00, 0x00,
  0x95, 0x00, 0x00, 0x00, 0x03, 0x00, 0x00, 0x00, 0x94, 0x00, 0x00, 0x00,
  0x0a, 0x00, 0x00, 0x00, 0xff, 0xff, 0xff, 0xff, 0xde, 0xed, 0xff, 0xff,
  0x14, 0x00, 0x00, 0x00, 0x00, 0x00, 0x00, 0x15, 0x10, 0x00, 0x00, 0x00,
  0x14, 0x00, 0x00, 0x00, 0x0a, 0x00, 0x00, 0x00, 0xac, 0xa3, 0xff, 0xff,
  0x01, 0x00, 0x00, 0x00, 0x94, 0x00, 0x00, 0x00, 0x02, 0x00, 0x00, 0x00,
  0x8e, 0x00, 0x00, 0x00, 0x93, 0x00, 0x00, 0x00, 0x3e, 0xee, 0xff, 0xff,
  0x0c, 0x00, 0x00, 0x00, 0x10, 0x00, 0x00, 0x00, 0x0b, 0x00, 0x00, 0x00,
  0x01, 0x00, 0x00, 0x00, 0x93, 0x00, 0x00, 0x00, 0x01, 0x00, 0x00, 0x00,
  0x92, 0x00, 0x00, 0x00, 0x2e, 0xee, 0xff, 0xff, 0x14, 0x00, 0x00, 0x00,
  0x00, 0x00, 0x00, 0x0b, 0x10, 0x00, 0x00, 0x00, 0x14, 0x00, 0x00, 0x00,
  0x07, 0x00, 0x00, 0x00, 0xfc, 0xa3, 0xff, 0xff, 0x01, 0x00, 0x00, 0x00,
  0x92, 0x00, 0x00, 0x00, 0x02, 0x00, 0x00, 0x00, 0x91, 0x00, 0x00, 0x00,
  0x90, 0x00, 0x00, 0x00, 0x5e, 0xee, 0xff, 0xff, 0x14, 0x00, 0x00, 0x00,
  0x00, 0x00, 0x00, 0x15, 0x10, 0x00, 0x00, 0x00, 0x14, 0x00, 0x00, 0x00,
  0x0a, 0x00, 0x00, 0x00, 0x2c, 0xa4, 0xff, 0xff, 0x01, 0x00, 0x00, 0x00,
  0x91, 0x00, 0x00, 0x00, 0x02, 0x00, 0x00, 0x00, 0x8d, 0x00, 0x00, 0x00,
  0x82, 0x00, 0x00, 0x00, 0x8e, 0xee, 0xff, 0xff, 0x14, 0x00, 0x00, 0x00,
  0x00, 0x00, 0x00, 0x15, 0x10, 0x00, 0x00, 0x00, 0x14, 0x00, 0x00, 0x00,
  0x0a, 0x00, 0x00, 0x00, 0x5c, 0xa4, 0xff, 0xff, 0x01, 0x00, 0x00, 0x00,
  0x90, 0x00, 0x00, 0x00, 0x02, 0x00, 0x00, 0x00, 0x8c, 0x00, 0x00, 0x00,
  0x8f, 0x00, 0x00, 0x00, 0xee, 0xee, 0xff, 0xff, 0x0c, 0x00, 0x00, 0x00,
  0x10, 0x00, 0x00, 0x00, 0x0b, 0x00, 0x00, 0x00, 0x01, 0x00, 0x00, 0x00,
  0x8f, 0x00, 0x00, 0x00, 0x01, 0x00, 0x00, 0x00, 0x8a, 0x00, 0x00, 0x00,
  0x0e, 0xef, 0xff, 0xff, 0x0c, 0x00, 0x00, 0x00, 0x10, 0x00, 0x00, 0x00,
  0x09, 0x00, 0x00, 0x00, 0x01, 0x00, 0x00, 0x00, 0x8e, 0x00, 0x00, 0x00,
  0x01, 0x00, 0x00, 0x00, 0x8b, 0x00, 0x00, 0x00, 0x2e, 0xef, 0xff, 0xff,
  0x0c, 0x00, 0x00, 0x00, 0x10, 0x00, 0x00, 0x00, 0x09, 0x00, 0x00, 0x00,
  0x01, 0x00, 0x00, 0x00, 0x8d, 0x00, 0x00, 0x00, 0x01, 0x00, 0x00, 0x00,
  0x89, 0x00, 0x00, 0x00, 0x4e, 0xef, 0xff, 0xff, 0x0c, 0x00, 0x00, 0x00,
  0x10, 0x00, 0x00, 0x00, 0x09, 0x00, 0x00, 0x00, 0x01, 0x00, 0x00, 0x00,
  0x8c, 0x00, 0x00, 0x00, 0x01, 0x00, 0x00, 0x00, 0x88, 0x00, 0x00, 0x00,
  0x3e, 0xef, 0xff, 0xff, 0x14, 0x00, 0x00, 0x00, 0x00, 0x00, 0x00, 0x23,
  0x14, 0x00, 0x00, 0x00, 0x24, 0x00, 0x00, 0x00, 0x08, 0x00, 0x00, 0x00,
  0xc6, 0xef, 0xff, 0xff, 0x04, 0x00, 0x00, 0x00, 0x04, 0x00, 0x00, 0x00,
  0x88, 0x00, 0x00, 0x00, 0x89, 0x00, 0x00, 0x00, 0x8a, 0x00, 0x00, 0x00,
  0x8b, 0x00, 0x00, 0x00, 0x02, 0x00, 0x00, 0x00, 0x09, 0x00, 0x00, 0x00,
  0x87, 0x00, 0x00, 0x00, 0x7e, 0xef, 0xff, 0xff, 0x14, 0x00, 0x00, 0x00,
  0x00, 0x00, 0x00, 0x0b, 0x10, 0x00, 0x00, 0x00, 0x14, 0x00, 0x00, 0x00,
  0x07, 0x00, 0x00, 0x00, 0x4c, 0xa5, 0xff, 0xff, 0x01, 0x00, 0x00, 0x00,
  0x87, 0x00, 0x00, 0x00, 0x02, 0x00, 0x00, 0x00, 0x86, 0x00, 0x00, 0x00,
  0x01, 0x00, 0x00, 0x00, 0xae, 0xef, 0xff, 0xff, 0x14, 0x00, 0x00, 0x00,
  0x00, 0x00, 0x00, 0x0b, 0x10, 0x00, 0x00, 0x00, 0x14, 0x00, 0x00, 0x00,
  0x07, 0x00, 0x00, 0x00, 0x7c, 0xa5, 0xff, 0xff, 0x01, 0x00, 0x00, 0x00,
  0x86, 0x00, 0x00, 0x00, 0x02, 0x00, 0x00, 0x00, 0x2f, 0x00, 0x00, 0x00,
  0x85, 0x00, 0x00, 0x00, 0xde, 0xef, 0xff, 0xff, 0x14, 0x00, 0x00, 0x00,
  0x00, 0x00, 0x00, 0x08, 0x10, 0x00, 0x00, 0x00, 0x14, 0x00, 0x00, 0x00,
  0x06, 0x00, 0x00, 0x00, 0xac, 0xa5, 0xff, 0xff, 0x01, 0x00, 0x00, 0x00,
  0x85, 0x00, 0x00, 0x00, 0x03, 0x00, 0x00, 0x00, 0x84, 0x00, 0x00, 0x00,
  0x0a, 0x00, 0x00, 0x00, 0xff, 0xff, 0xff, 0xff, 0x12, 0xf0, 0xff, 0xff,
  0x14, 0x00, 0x00, 0x00, 0x00, 0x00, 0x00, 0x15, 0x10, 0x00, 0x00, 0x00,
  0x14, 0x00, 0x00, 0x00, 0x0a, 0x00, 0x00, 0x00, 0xe0, 0xa5, 0xff, 0xff,
  0x01, 0x00, 0x00, 0x00, 0x84, 0x00, 0x00, 0x00, 0x02, 0x00, 0x00, 0x00,
  0x7e, 0x00, 0x00, 0x00, 0x83, 0x00, 0x00, 0x00, 0x72, 0xf0, 0xff, 0xff,
  0x0c, 0x00, 0x00, 0x00, 0x10, 0x00, 0x00, 0x00, 0x0b, 0x00, 0x00, 0x00,
  0x01, 0x00, 0x00, 0x00, 0x83, 0x00, 0x00, 0x00, 0x01, 0x00, 0x00, 0x00,
  0x82, 0x00, 0x00, 0x00, 0x62, 0xf0, 0xff, 0xff, 0x14, 0x00, 0x00, 0x00,
  0x00, 0x00, 0x00, 0x0b, 0x10, 0x00, 0x00, 0x00, 0x14, 0x00, 0x00, 0x00,
  0x07, 0x00, 0x00, 0x00, 0x30, 0xa6, 0xff, 0xff, 0x01, 0x00, 0x00, 0x00,
  0x82, 0x00, 0x00, 0x00, 0x02, 0x00, 0x00, 0x00, 0x81, 0x00, 0x00, 0x00,
  0x80, 0x00, 0x00, 0x00, 0x92, 0xf0, 0xff, 0xff, 0x14, 0x00, 0x00, 0x00,
  0x00, 0x00, 0x00, 0x15, 0x10, 0x00, 0x00, 0x00, 0x14, 0x00, 0x00, 0x00,
  0x0a, 0x00, 0x00, 0x00, 0x60, 0xa6, 0xff, 0xff, 0x01, 0x00, 0x00, 0x00,
  0x81, 0x00, 0x00, 0x00, 0x02, 0x00, 0x00, 0x00, 0x7d, 0x00, 0x00, 0x00,
  0x72, 0x00, 0x00, 0x00, 0xc2, 0xf0, 0xff, 0xff, 0x14, 0x00, 0x00, 0x00,
  0x00, 0x00, 0x00, 0x15, 0x10, 0x00, 0x00, 0x00, 0x14, 0x00, 0x00, 0x00,
  0x0a, 0x00, 0x00, 0x00, 0x90, 0xa6, 0xff, 0xff, 0x01, 0x00, 0x00, 0x00,
  0x80, 0x00, 0x00, 0x00, 0x02, 0x00, 0x00, 0x00, 0x7c, 0x00, 0x00, 0x00,
  0x7f, 0x00, 0x00, 0x00, 0x22, 0xf1, 0xff, 0xff, 0x0c, 0x00, 0x00, 0x00,
  0x10, 0x00, 0x00, 0x00, 0x0b, 0x00, 0x00, 0x00, 0x01, 0x00, 0x00, 0x00,
  0x7f, 0x00, 0x00, 0x00, 0x01, 0x00, 0x00, 0x00, 0x7a, 0x00, 0x00, 0x00,
  0x42, 0xf1, 0xff, 0xff, 0x0c, 0x00, 0x00, 0x00, 0x10, 0x00, 0x00, 0x00,
  0x09, 0x00, 0x00, 0x00, 0x01, 0x00, 0x00, 0x00, 0x7e, 0x00, 0x00, 0x00,
  0x01, 0x00, 0x00, 0x00, 0x7b, 0x00, 0x00, 0x00, 0x62, 0xf1, 0xff, 0xff,
  0x0c, 0x00, 0x00, 0x00, 0x10, 0x00, 0x00, 0x00, 0x09, 0x00, 0x00, 0x00,
  0x01, 0x00, 0x00, 0x00, 0x7d, 0x00, 0x00, 0x00, 0x01, 0x00, 0x00, 0x00,
  0x79, 0x00, 0x00, 0x00, 0x82, 0xf1, 0xff, 0xff, 0x0c, 0x00, 0x00, 0x00,
  0x10, 0x00, 0x00, 0x00, 0x09, 0x00, 0x00, 0x00, 0x01, 0x00, 0x00, 0x00,
  0x7c, 0x00, 0x00, 0x00, 0x01, 0x00, 0x00, 0x00, 0x78, 0x00, 0x00, 0x00,
  0x72, 0xf1, 0xff, 0xff, 0x14, 0x00, 0x00, 0x00, 0x00, 0x00, 0x00, 0x23,
  0x14, 0x00, 0x00, 0x00, 0x24, 0x00, 0x00, 0x00, 0x08, 0x00, 0x00, 0x00,
  0xfa, 0xf1, 0xff, 0xff, 0x04, 0x00, 0x00, 0x00, 0x04, 0x00, 0x00, 0x00,
  0x78, 0x00, 0x00, 0x00, 0x79, 0x00, 0x00, 0x00, 0x7a, 0x00, 0x00, 0x00,
  0x7b, 0x00, 0x00, 0x00, 0x02, 0x00, 0x00, 0x00, 0x09, 0x00, 0x00, 0x00,
  0x77, 0x00, 0x00, 0x00, 0xb2, 0xf1, 0xff, 0xff, 0x14, 0x00, 0x00, 0x00,
  0x00, 0x00, 0x00, 0x0b, 0x10, 0x00, 0x00, 0x00, 0x14, 0x00, 0x00, 0x00,
  0x07, 0x00, 0x00, 0x00, 0x80, 0xa7, 0xff, 0xff, 0x01, 0x00, 0x00, 0x00,
  0x77, 0x00, 0x00, 0x00, 0x02, 0x00, 0x00, 0x00, 0x76, 0x00, 0x00, 0x00,
  0x01, 0x00, 0x00, 0x00, 0xe2, 0xf1, 0xff, 0xff, 0x14, 0x00, 0x00, 0x00,
  0x00, 0x00, 0x00, 0x0b, 0x10, 0x00, 0x00, 0x00, 0x14, 0x00, 0x00, 0x00,
  0x07, 0x00, 0x00, 0x00, 0xb0, 0xa7, 0xff, 0xff, 0x01, 0x00, 0x00, 0x00,
  0x76, 0x00, 0x00, 0x00, 0x02, 0x00, 0x00, 0x00, 0x2e, 0x00, 0x00, 0x00,
  0x75, 0x00, 0x00, 0x00, 0x12, 0xf2, 0xff, 0xff, 0x14, 0x00, 0x00, 0x00,
  0x00, 0x00, 0x00, 0x08, 0x10, 0x00, 0x00, 0x00, 0x14, 0x00, 0x00, 0x00,
  0x06, 0x00, 0x00, 0x00, 0xe0, 0xa7, 0xff, 0xff, 0x01, 0x00, 0x00, 0x00,
  0x75, 0x00, 0x00, 0x00, 0x03, 0x00, 0x00, 0x00, 0x74, 0x00, 0x00, 0x00,
  0x0a, 0x00, 0x00, 0x00, 0xff, 0xff, 0xff, 0xff, 0x46, 0xf2, 0xff, 0xff,
  0x14, 0x00, 0x00, 0x00, 0x00, 0x00, 0x00, 0x15, 0x10, 0x00, 0x00, 0x00,
  0x14, 0x00, 0x00, 0x00, 0x0a, 0x00, 0x00, 0x00, 0x14, 0xa8, 0xff, 0xff,
  0x01, 0x00, 0x00, 0x00, 0x74, 0x00, 0x00, 0x00, 0x02, 0x00, 0x00, 0x00,
  0x6f, 0x00, 0x00, 0x00, 0x73, 0x00, 0x00, 0x00, 0xa6, 0xf2, 0xff, 0xff,
  0x0c, 0x00, 0x00, 0x00, 0x10, 0x00, 0x00, 0x00, 0x0b, 0x00, 0x00, 0x00,
  0x01, 0x00, 0x00, 0x00, 0x73, 0x00, 0x00, 0x00, 0x01, 0x00, 0x00, 0x00,
  0x72, 0x00, 0x00, 0x00, 0x96, 0xf2, 0xff, 0xff, 0x14, 0x00, 0x00, 0x00,
  0x00, 0x00, 0x00, 0x0b, 0x10, 0x00, 0x00, 0x00, 0x14, 0x00, 0x00, 0x00,
  0x07, 0x00, 0x00, 0x00, 0x64, 0xa8, 0xff, 0xff, 0x01, 0x00, 0x00, 0x00,
  0x72, 0x00, 0x00, 0x00, 0x02, 0x00, 0x00, 0x00, 0x6e, 0x00, 0x00, 0x00,
  0x71, 0x00, 0x00, 0x00, 0xc6, 0xf2, 0xff, 0xff, 0x14, 0x00, 0x00, 0x00,
  0x00, 0x00, 0x00, 0x15, 0x10, 0x00, 0x00, 0x00, 0x14, 0x00, 0x00, 0x00,
  0x0a, 0x00, 0x00, 0x00, 0x94, 0xa8, 0xff, 0xff, 0x01, 0x00, 0x00, 0x00,
  0x71, 0x00, 0x00, 0x00, 0x02, 0x00, 0x00, 0x00, 0x6c, 0x00, 0x00, 0x00,
  0x70, 0x00, 0x00, 0x00, 0x26, 0xf3, 0xff, 0xff, 0x0c, 0x00, 0x00, 0x00,
  0x10, 0x00, 0x00, 0x00, 0x0b, 0x00, 0x00, 0x00, 0x01, 0x00, 0x00, 0x00,
  0x70, 0x00, 0x00, 0x00, 0x01, 0x00, 0x00, 0x00, 0x6a, 0x00, 0x00, 0x00,
  0x46, 0xf3, 0xff, 0xff, 0x0c, 0x00, 0x00, 0x00, 0x10, 0x00, 0x00, 0x00,
  0x09, 0x00, 0x00, 0x00, 0x01, 0x00, 0x00, 0x00, 0x6f, 0x00, 0x00, 0x00,
  0x01, 0x00, 0x00, 0x00, 0x6b, 0x00, 0x00, 0x00, 0x36, 0xf3, 0xff, 0xff,
  0x14, 0x00, 0x00, 0x00, 0x00, 0x00, 0x00, 0x15, 0x10, 0x00, 0x00, 0x00,
  0x14, 0x00, 0x00, 0x00, 0x0a, 0x00, 0x00, 0x00, 0x04, 0xa9, 0xff, 0xff,
  0x01, 0x00, 0x00, 0x00, 0x6e, 0x00, 0x00, 0x00, 0x02, 0x00, 0x00, 0x00,
  0x6d, 0x00, 0x00, 0x00, 0x61, 0x00, 0x00, 0x00, 0x96, 0xf3, 0xff, 0xff,
  0x0c, 0x00, 0x00, 0x00, 0x10, 0x00, 0x00, 0x00, 0x09, 0x00, 0x00, 0x00,
  0x01, 0x00, 0x00, 0x00, 0x6d, 0x00, 0x00, 0x00, 0x01, 0x00, 0x00, 0x00,
  0x69, 0x00, 0x00, 0x00, 0xb6, 0xf3, 0xff, 0xff, 0x0c, 0x00, 0x00, 0x00,
  0x10, 0x00, 0x00, 0x00, 0x09, 0x00, 0x00, 0x00, 0x01, 0x00, 0x00, 0x00,
  0x6c, 0x00, 0x00, 0x00, 0x01, 0x00, 0x00, 0x00, 0x68, 0x00, 0x00, 0x00,
  0xa6, 0xf3, 0xff, 0xff, 0x14, 0x00, 0x00, 0x00, 0x00, 0x00, 0x00, 0x23,
  0x14, 0x00, 0x00, 0x00, 0x24, 0x00, 0x00, 0x00, 0x08, 0x00, 0x00, 0x00,
  0x2e, 0xf4, 0xff, 0xff, 0x04, 0x00, 0x00, 0x00, 0x04, 0x00, 0x00, 0x00,
  0x68, 0x00, 0x00, 0x00, 0x69, 0x00, 0x00, 0x00, 0x6a, 0x00, 0x00, 0x00,
  0x6b, 0x00, 0x00, 0x00, 0x02, 0x00, 0x00, 0x00, 0x09, 0x00, 0x00, 0x00,
  0x67, 0x00, 0x00, 0x00, 0xe6, 0xf3, 0xff, 0xff, 0x14, 0x00, 0x00, 0x00,
  0x00, 0x00, 0x00, 0x0b, 0x10, 0x00, 0x00, 0x00, 0x14, 0x00, 0x00, 0x00,
  0x07, 0x00, 0x00, 0x00, 0xb4, 0xa9, 0xff, 0xff, 0x01, 0x00, 0x00, 0x00,
  0x67, 0x00, 0x00, 0x00, 0x02, 0x00, 0x00, 0x00, 0x66, 0x00, 0x00, 0x00,
  0x01, 0x00, 0x00, 0x00, 0x16, 0xf4, 0xff, 0xff, 0x14, 0x00, 0x00, 0x00,
  0x00, 0x00, 0x00, 0x0b, 0x10, 0x00, 0x00, 0x00, 0x14, 0x00, 0x00, 0x00,
  0x07, 0x00, 0x00, 0x00, 0xe4, 0xa9, 0xff, 0xff, 0x01, 0x00, 0x00, 0x00,
  0x66, 0x00, 0x00, 0x00, 0x02, 0x00, 0x00, 0x00, 0x65, 0x00, 0x00, 0x00,
  0x64, 0x00, 0x00, 0x00, 0x46, 0xf4, 0xff, 0xff, 0x14, 0x00, 0x00, 0x00,
  0x00, 0x00, 0x00, 0x08, 0x10, 0x00, 0x00, 0x00, 0x14, 0x00, 0x00, 0x00,
  0x06, 0x00, 0x00, 0x00, 0x14, 0xaa, 0xff, 0xff, 0x01, 0x00, 0x00, 0x00,
  0x65, 0x00, 0x00, 0x00, 0x03, 0x00, 0x00, 0x00, 0x15, 0x00, 0x00, 0x00,
  0x0b, 0x00, 0x00, 0x00, 0xff, 0xff, 0xff, 0xff, 0x7a, 0xf4, 0xff, 0xff,
  0x14, 0x00, 0x00, 0x00, 0x00, 0x00, 0x00, 0x08, 0x10, 0x00, 0x00, 0x00,
  0x14, 0x00, 0x00, 0x00, 0x06, 0x00, 0x00, 0x00, 0x48, 0xaa, 0xff, 0xff,
  0x01, 0x00, 0x00, 0x00, 0x64, 0x00, 0x00, 0x00, 0x03, 0x00, 0x00, 0x00,
  0x63, 0x00, 0x00, 0x00, 0x0a, 0x00, 0x00, 0x00, 0xff, 0xff, 0xff, 0xff,
  0xae, 0xf4, 0xff, 0xff, 0x14, 0x00, 0x00, 0x00, 0x00, 0x00, 0x00, 0x15,
  0x10, 0x00, 0x00, 0x00, 0x14, 0x00, 0x00, 0x00, 0x0a, 0x00, 0x00, 0x00,
  0x7c, 0xaa, 0xff, 0xff, 0x01, 0x00, 0x00, 0x00, 0x63, 0x00, 0x00, 0x00,
  0x02, 0x00, 0x00, 0x00, 0x5d, 0x00, 0x00, 0x00, 0x62, 0x00, 0x00, 0x00,
  0x0e, 0xf5, 0xff, 0xff, 0x0c, 0x00, 0x00, 0x00, 0x10, 0x00, 0x00, 0x00,
  0x0b, 0x00, 0x00, 0x00, 0x01, 0x00, 0x00, 0x00, 0x62, 0x00, 0x00, 0x00,
  0x01, 0x00, 0x00, 0x00, 0x61, 0x00, 0x00, 0x00, 0xfe, 0xf4, 0xff, 0xff,
  0x14, 0x00, 0x00, 0x00, 0x00, 0x00, 0x00, 0x0b, 0x10, 0x00, 0x00, 0x00,
  0x14, 0x00, 0x00, 0x00, 0x07, 0x00, 0x00, 0x00, 0xcc, 0xaa, 0xff, 0xff,
  0x01, 0x00, 0x00, 0x00, 0x61, 0x00, 0x00, 0x00, 0x02, 0x00, 0x00, 0x00,
  0x5c, 0x00, 0x00, 0x00, 0x60, 0x00, 0x00, 0x00, 0x2e, 0xf5, 0xff, 0xff,
  0x14, 0x00, 0x00, 0x00, 0x00, 0x00, 0x00, 0x15, 0x10, 0x00, 0x00, 0x00,
  0x14, 0x00, 0x00, 0x00, 0x0a, 0x00, 0x00, 0x00, 0xfc, 0xaa, 0xff, 0xff,
  0x01, 0x00, 0x00, 0x00, 0x60, 0x00, 0x00, 0x00, 0x02, 0x00, 0x00, 0x00,
  0x5e, 0x00, 0x00, 0x00, 0x5f, 0x00, 0x00, 0x00, 0x8e, 0xf5, 0xff, 0xff,
  0x0c, 0x00, 0x00, 0x00, 0x10, 0x00, 0x00, 0x00, 0x0b, 0x00, 0x00, 0x00,
  0x01, 0x00, 0x00, 0x00, 0x5f, 0x00, 0x00, 0x00, 0x01, 0x00, 0x00, 0x00,
  0x59, 0x00, 0x00, 0x00, 0xae, 0xf5, 0xff, 0xff, 0x0c, 0x00, 0x00, 0x00,
  0x10, 0x00, 0x00, 0x00, 0x09, 0x00, 0x00, 0x00, 0x01, 0x00, 0x00, 0x00,
  0x5e, 0x00, 0x00, 0x00, 0x01, 0x00, 0x00, 0x00, 0x57, 0x00, 0x00, 0x00,
  0xce, 0xf5, 0xff, 0xff, 0x0c, 0x00, 0x00, 0x00, 0x10, 0x00, 0x00, 0x00,
  0x09, 0x00, 0x00, 0x00, 0x01, 0x00, 0x00, 0x00, 0x5d, 0x00, 0x00, 0x00,
  0x01, 0x00, 0x00, 0x00, 0x5a, 0x00, 0x00, 0x00, 0xbe, 0xf5, 0xff, 0xff,
  0x14, 0x00, 0x00, 0x00, 0x00, 0x00, 0x00, 0x15, 0x10, 0x00, 0x00, 0x00,
  0x14, 0x00, 0x00, 0x00, 0x0a, 0x00, 0x00, 0x00, 0x8c, 0xab, 0xff, 0xff,
  0x01, 0x00, 0x00, 0x00, 0x5c, 0x00, 0x00, 0x00, 0x02, 0x00, 0x00, 0x00,
  0x5b, 0x00, 0x00, 0x00, 0x50, 0x00, 0x00, 0x00, 0x1e, 0xf6, 0xff, 0xff,
  0x0c, 0x00, 0x00, 0x00, 0x10, 0x00, 0x00, 0x00, 0x09, 0x00, 0x00, 0x00,
  0x01, 0x00, 0x00, 0x00, 0x5b, 0x00, 0x00, 0x00, 0x01, 0x00, 0x00, 0x00,
  0x58, 0x00, 0x00, 0x00, 0x0e, 0xf6, 0xff, 0xff, 0x14, 0x00, 0x00, 0x00,
  0x00, 0x00, 0x00, 0x23, 0x14, 0x00, 0x00, 0x00, 0x24, 0x00, 0x00, 0x00,
  0x08, 0x00, 0x00, 0x00, 0x96, 0xf6, 0xff, 0xff, 0x04, 0x00, 0x00, 0x00,
  0x04, 0x00, 0x00, 0x00, 0x57, 0x00, 0x00, 0x00, 0x58, 0x00, 0x00, 0x00,
  0x59, 0x00, 0x00, 0x00, 0x5a, 0x00, 0x00, 0x00, 0x02, 0x00, 0x00, 0x00,
  0x09, 0x00, 0x00, 0x00, 0x56, 0x00, 0x00, 0x00, 0x4e, 0xf6, 0xff, 0xff,
  0x14, 0x00, 0x00, 0x00, 0x00, 0x00, 0x00, 0x0b, 0x10, 0x00, 0x00, 0x00,
  0x14, 0x00, 0x00, 0x00, 0x07, 0x00, 0x00, 0x00, 0x1c, 0xac, 0xff, 0xff,
  0x01, 0x00, 0x00, 0x00, 0x56, 0x00, 0x00, 0x00, 0x02, 0x00, 0x00, 0x00,
  0x55, 0x00, 0x00, 0x00, 0x01, 0x00, 0x00, 0x00, 0x7e, 0xf6, 0xff, 0xff,
  0x14, 0x00, 0x00, 0x00, 0x00, 0x00, 0x00, 0x0b, 0x10, 0x00, 0x00, 0x00,
  0x14, 0x00, 0x00, 0x00, 0x07, 0x00, 0x00, 0x00, 0x4c, 0xac, 0xff, 0xff,
  0x01, 0x00, 0x00, 0x00, 0x55, 0x00, 0x00, 0x00, 0x02, 0x00, 0x00, 0x00,
  0x54, 0x00, 0x00, 0x00, 0x53, 0x00, 0x00, 0x00, 0xae, 0xf6, 0xff, 0xff,
  0x14, 0x00, 0x00, 0x00, 0x00, 0x00, 0x00, 0x08, 0x10, 0x00, 0x00, 0x00,
  0x14, 0x00, 0x00, 0x00, 0x06, 0x00, 0x00, 0x00, 0x7c, 0xac, 0xff, 0xff,
  0x01, 0x00, 0x00, 0x00, 0x54, 0x00, 0x00, 0x00, 0x03, 0x00, 0x00, 0x00,
  0x14, 0x00, 0x00, 0x00, 0x0b, 0x00, 0x00, 0x00, 0xff, 0xff, 0xff, 0xff,
  0xe2, 0xf6, 0xff, 0xff, 0x14, 0x00, 0x00, 0x00, 0x00, 0x00, 0x00, 0x08,
  0x10, 0x00, 0x00, 0x00, 0x14, 0x00, 0x00, 0x00, 0x06, 0x00, 0x00, 0x00,
  0xb0, 0xac, 0xff, 0xff, 0x01, 0x00, 0x00, 0x00, 0x53, 0x00, 0x00, 0x00,
  0x03, 0x00, 0x00, 0x00, 0x52, 0x00, 0x00, 0x00, 0x0a, 0x00, 0x00, 0x00,
  0xff, 0xff, 0xff, 0xff, 0x16, 0xf7, 0xff, 0xff, 0x14, 0x00, 0x00, 0x00,
  0x00, 0x00, 0x00, 0x15, 0x10, 0x00, 0x00, 0x00, 0x14, 0x00, 0x00, 0x00,
  0x0a, 0x00, 0x00, 0x00, 0xe4, 0xac, 0xff, 0xff, 0x01, 0x00, 0x00, 0x00,
  0x52, 0x00, 0x00, 0x00, 0x02, 0x00, 0x00, 0x00, 0x4d, 0x00, 0x00, 0x00,
  0x51, 0x00, 0x00, 0x00, 0x76, 0xf7, 0xff, 0xff, 0x0c, 0x00, 0x00, 0x00,
  0x10, 0x00, 0x00, 0x00, 0x0b, 0x00, 0x00, 0x00, 0x01, 0x00, 0x00, 0x00,
  0x51, 0x00, 0x00, 0x00, 0x01, 0x00, 0x00, 0x00, 0x50, 0x00, 0x00, 0x00,
  0x66, 0xf7, 0xff, 0xff, 0x14, 0x00, 0x00, 0x00, 0x00, 0x00, 0x00, 0x0b,
  0x10, 0x00, 0x00, 0x00, 0x14, 0x00, 0x00, 0x00, 0x07, 0x00, 0x00, 0x00,
  0x34, 0xad, 0xff, 0xff, 0x01, 0x00, 0x00, 0x00, 0x50, 0x00, 0x00, 0x00,
  0x02, 0x00, 0x00, 0x00, 0x4c, 0x00, 0x00, 0x00, 0x4f, 0x00, 0x00, 0x00,
  0x96, 0xf7, 0xff, 0xff, 0x14, 0x00, 0x00, 0x00, 0x00, 0x00, 0x00, 0x15,
  0x10, 0x00, 0x00, 0x00, 0x14, 0x00, 0x00, 0x00, 0x0a, 0x00, 0x00, 0x00,
  0x64, 0xad, 0xff, 0xff, 0x01, 0x00, 0x00, 0x00, 0x4f, 0x00, 0x00, 0x00,
  0x02, 0x00, 0x00, 0x00, 0x4a, 0x00, 0x00, 0x00, 0x4e, 0x00, 0x00, 0x00,
  0xf6, 0xf7, 0xff, 0xff, 0x0c, 0x00, 0x00, 0x00, 0x10, 0x00, 0x00, 0x00,
  0x0b, 0x00, 0x00, 0x00, 0x01, 0x00, 0x00, 0x00, 0x4e, 0x00, 0x00, 0x00,
  0x01, 0x00, 0x00, 0x00, 0x48, 0x00, 0x00, 0x00, 0x16, 0xf8, 0xff, 0xff,
  0x0c, 0x00, 0x00, 0x00, 0x10, 0x00, 0x00, 0x00, 0x09, 0x00, 0x00, 0x00,
  0x01, 0x00, 0x00, 0x00, 0x4d, 0x00, 0x00, 0x00, 0x01, 0x00, 0x00, 0x00,
  0x49, 0x00, 0x00, 0x00, 0x06, 0xf8, 0xff, 0xff, 0x14, 0x00, 0x00, 0x00,
  0x00, 0x00, 0x00, 0x15, 0x10, 0x00, 0x00, 0x00, 0x14, 0x00, 0x00, 0x00,
  0x0a, 0x00, 0x00, 0x00, 0xd4, 0xad, 0xff, 0xff, 0x01, 0x00, 0x00, 0x00,
  0x4c, 0x00, 0x00, 0x00, 0x02, 0x00, 0x00, 0x00, 0x4b, 0x00, 0x00, 0x00,
  0x3f, 0x00, 0x00, 0x00, 0x66, 0xf8, 0xff, 0xff, 0x0c, 0x00, 0x00, 0x00,
  0x10, 0x00, 0x00, 0x00, 0x09, 0x00, 0x00, 0x00, 0x01, 0x00, 0x00, 0x00,
  0x4b, 0x00, 0x00, 0x00, 0x01, 0x00, 0x00, 0x00, 0x47, 0x00, 0x00, 0x00,
  0x86, 0xf8, 0xff, 0xff, 0x0c, 0x00, 0x00, 0x00, 0x10, 0x00, 0x00, 0x00,
  0x09, 0x00, 0x00, 0x00, 0x01, 0x00, 0x00, 0x00, 0x4a, 0x00, 0x00, 0x00,
  0x01, 0x00, 0x00, 0x00, 0x46, 0x00, 0x00, 0x00, 0x76, 0xf8, 0xff, 0xff,
  0x14, 0x00, 0x00, 0x00, 0x00, 0x00, 0x00, 0x23, 0x14, 0x00, 0x00, 0x00,
  0x24, 0x00, 0x00, 0x00, 0x08, 0x00, 0x00, 0x00, 0xfe, 0xf8, 0xff, 0xff,
  0x04, 0x00, 0x00, 0x00, 0x04, 0x00, 0x00, 0x00, 0x46, 0x00, 0x00, 0x00,
  0x47, 0x00, 0x00, 0x00, 0x48, 0x00, 0x00, 0x00, 0x49, 0x00, 0x00, 0x00,
  0x02, 0x00, 0x00, 0x00, 0x09, 0x00, 0x00, 0x00, 0x45, 0x00, 0x00, 0x00,
  0xb6, 0xf8, 0xff, 0xff, 0x14, 0x00, 0x00, 0x00, 0x00, 0x00, 0x00, 0x0b,
  0x10, 0x00, 0x00, 0x00, 0x14, 0x00, 0x00, 0x00, 0x07, 0x00, 0x00, 0x00,
  0x84, 0xae, 0xff, 0xff, 0x01, 0x00, 0x00, 0x00, 0x45, 0x00, 0x00, 0x00,
  0x02, 0x00, 0x00, 0x00, 0x44, 0x00, 0x00, 0x00, 0x01, 0x00, 0x00, 0x00,
  0xe6, 0xf8, 0xff, 0xff, 0x14, 0x00, 0x00, 0x00, 0x00, 0x00, 0x00, 0x0b,
  0x10, 0x00, 0x00, 0x00, 0x14, 0x00, 0x00, 0x00, 0x07, 0x00, 0x00, 0x00,
  0xb4, 0xae, 0xff, 0xff, 0x01, 0x00, 0x00, 0x00, 0x44, 0x00, 0x00, 0x00,
  0x02, 0x00, 0x00, 0x00, 0x43, 0x00, 0x00, 0x00, 0x42, 0x00, 0x00, 0x00,
  0x16, 0xf9, 0xff, 0xff, 0x14, 0x00, 0x00, 0x00, 0x00, 0x00, 0x00, 0x08,
  0x10, 0x00, 0x00, 0x00, 0x14, 0x00, 0x00, 0x00, 0x06, 0x00, 0x00, 0x00,
  0xe4, 0xae, 0xff, 0xff, 0x01, 0x00, 0x00, 0x00, 0x43, 0x00, 0x00, 0x00,
  0x03, 0x00, 0x00, 0x00, 0x13, 0x00, 0x00, 0x00, 0x0b, 0x00, 0x00, 0x00,
  0xff, 0xff, 0xff, 0xff, 0x4a, 0xf9, 0xff, 0xff, 0x14, 0x00, 0x00, 0x00,
  0x00, 0x00, 0x00, 0x08, 0x10, 0x00, 0x00, 0x00, 0x14, 0x00, 0x00, 0x00,
  0x06, 0x00, 0x00, 0x00, 0x18, 0xaf, 0xff, 0xff, 0x01, 0x00, 0x00, 0x00,
  0x42, 0x00, 0x00, 0x00, 0x03, 0x00, 0x00, 0x00, 0x41, 0x00, 0x00, 0x00,
  0x0a, 0x00, 0x00, 0x00, 0xff, 0xff, 0xff, 0xff, 0x7e, 0xf9, 0xff, 0xff,
  0x14, 0x00, 0x00, 0x00, 0x00, 0x00, 0x00, 0x15, 0x10, 0x00, 0x00, 0x00,
  0x14, 0x00, 0x00, 0x00, 0x0a, 0x00, 0x00, 0x00, 0x4c, 0xaf, 0xff, 0xff,
  0x01, 0x00, 0x00, 0x00, 0x41, 0x00, 0x00, 0x00, 0x02, 0x00, 0x00, 0x00,
  0x3c, 0x00, 0x00, 0x00, 0x40, 0x00, 0x00, 0x00, 0xde, 0xf9, 0xff, 0xff,
  0x0c, 0x00, 0x00, 0x00, 0x10, 0x00, 0x00, 0x00, 0x0b, 0x00, 0x00, 0x00,
  0x01, 0x00, 0x00, 0x00, 0x40, 0x00, 0x00, 0x00, 0x01, 0x00, 0x00, 0x00,
  0x3f, 0x00, 0x00, 0x00, 0xce, 0xf9, 0xff, 0xff, 0x14, 0x00, 0x00, 0x00,
  0x00, 0x00, 0x00, 0x0b, 0x10, 0x00, 0x00, 0x00, 0x14, 0x00, 0x00, 0x00,
  0x07, 0x00, 0x00, 0x00, 0x9c, 0xaf, 0xff, 0xff, 0x01, 0x00, 0x00, 0x00,
  0x3f, 0x00, 0x00, 0x00, 0x02, 0x00, 0x00, 0x00, 0x3b, 0x00, 0x00, 0x00,
  0x3e, 0x00, 0x00, 0x00, 0xfe, 0xf9, 0xff, 0xff, 0x14, 0x00, 0x00, 0x00,
  0x00, 0x00, 0x00, 0x15, 0x10, 0x00, 0x00, 0x00, 0x14, 0x00, 0x00, 0x00,
  0x0a, 0x00, 0x00, 0x00, 0xcc, 0xaf, 0xff, 0xff, 0x01, 0x00, 0x00, 0x00,
  0x3e, 0x00, 0x00, 0x00, 0x02, 0x00, 0x00, 0x00, 0x39, 0x00, 0x00, 0x00,
  0x3d, 0x00, 0x00, 0x00, 0x5e, 0xfa, 0xff, 0xff, 0x0c, 0x00, 0x00, 0x00,
  0x10, 0x00, 0x00, 0x00, 0x0b, 0x00, 0x00, 0x00, 0x01, 0x00, 0x00, 0x00,
  0x3d, 0x00, 0x00, 0x00, 0x01, 0x00, 0x00, 0x00, 0x37, 0x00, 0x00, 0x00,
  0x7e, 0xfa, 0xff, 0xff, 0x0c, 0x00, 0x00, 0x00, 0x10, 0x00, 0x00, 0x00,
  0x09, 0x00, 0x00, 0x00, 0x01, 0x00, 0x00, 0x00, 0x3c, 0x00, 0x00, 0x00,
  0x01, 0x00, 0x00, 0x00, 0x38, 0x00, 0x00, 0x00, 0x6e, 0xfa, 0xff, 0xff,
  0x14, 0x00, 0x00, 0x00, 0x00, 0x00, 0x00, 0x15, 0x10, 0x00, 0x00, 0x00,
  0x14, 0x00, 0x00, 0x00, 0x0a, 0x00, 0x00, 0x00, 0x3c, 0xb0, 0xff, 0xff,
  0x01, 0x00, 0x00, 0x00, 0x3b, 0x00, 0x00, 0x00, 0x02, 0x00, 0x00, 0x00,
  0x3a, 0x00, 0x00, 0x00, 0x2a, 0x00, 0x00, 0x00, 0xce, 0xfa, 0xff, 0xff,
  0x0c, 0x00, 0x00, 0x00, 0x10, 0x00, 0x00, 0x00, 0x09, 0x00, 0x00, 0x00,
  0x01, 0x00, 0x00, 0x00, 0x3a, 0x00, 0x00, 0x00, 0x01, 0x00, 0x00, 0x00,
  0x36, 0x00, 0x00, 0x00, 0xee, 0xfa, 0xff, 0xff, 0x0c, 0x00, 0x00, 0x00,
  0x10, 0x00, 0x00, 0x00, 0x09, 0x00, 0x00, 0x00, 0x01, 0x00, 0x00, 0x00,
  0x39, 0x00, 0x00, 0x00, 0x01, 0x00, 0x00, 0x00, 0x35, 0x00, 0x00, 0x00,
  0xde, 0xfa, 0xff, 0xff, 0x14, 0x00, 0x00, 0x00, 0x00, 0x00, 0x00, 0x23,
  0x14, 0x00, 0x00, 0x00, 0x24, 0x00, 0x00, 0x00, 0x08, 0x00, 0x00, 0x00,
  0x66, 0xfb, 0xff, 0xff, 0x04, 0x00, 0x00, 0x00, 0x04, 0x00, 0x00, 0x00,
  0x35, 0x00, 0x00, 0x00, 0x36, 0x00, 0x00, 0x00, 0x37, 0x00, 0x00, 0x00,
  0x38, 0x00, 0x00, 0x00, 0x02, 0x00, 0x00, 0x00, 0x09, 0x00, 0x00, 0x00,
  0x34, 0x00, 0x00, 0x00, 0x1e, 0xfb, 0xff, 0xff, 0x14, 0x00, 0x00, 0x00,
  0x00, 0x00, 0x00, 0x0b, 0x10, 0x00, 0x00, 0x00, 0x14, 0x00, 0x00, 0x00,
  0x07, 0x00, 0x00, 0x00, 0xec, 0xb0, 0xff, 0xff, 0x01, 0x00, 0x00, 0x00,
  0x34, 0x00, 0x00, 0x00, 0x02, 0x00, 0x00, 0x00, 0x33, 0x00, 0x00, 0x00,
  0x01, 0x00, 0x00, 0x00, 0x4e, 0xfb, 0xff, 0xff, 0x14, 0x00, 0x00, 0x00,
  0x00, 0x00, 0x00, 0x0b, 0x10, 0x00, 0x00, 0x00, 0x14, 0x00, 0x00, 0x00,
  0x07, 0x00, 0x00, 0x00, 0x1c, 0xb1, 0xff, 0xff, 0x01, 0x00, 0x00, 0x00,
  0x33, 0x00, 0x00, 0x00, 0x02, 0x00, 0x00, 0x00, 0x32, 0x00, 0x00, 0x00,
  0x2d, 0x00, 0x00, 0x00, 0x7e, 0xfb, 0xff, 0xff, 0x14, 0x00, 0x00, 0x00,
  0x00, 0x00, 0x00, 0x08, 0x10, 0x00, 0x00, 0x00, 0x14, 0x00, 0x00, 0x00,
  0x06, 0x00, 0x00, 0x00, 0x4c, 0xb1, 0xff, 0xff, 0x01, 0x00, 0x00, 0x00,
  0x32, 0x00, 0x00, 0x00, 0x03, 0x00, 0x00, 0x00, 0x12, 0x00, 0x00, 0x00,
  0x0b, 0x00, 0x00, 0x00, 0xff, 0xff, 0xff, 0xff, 0xb2, 0xfb, 0xff, 0xff,
  0x14, 0x00, 0x00, 0x00, 0x00, 0x00, 0x00, 0x08, 0x10, 0x00, 0x00, 0x00,
  0x14, 0x00, 0x00, 0x00, 0x06, 0x00, 0x00, 0x00, 0x80, 0xb1, 0xff, 0xff,
  0x01, 0x00, 0x00, 0x00, 0x31, 0x00, 0x00, 0x00, 0x03, 0x00, 0x00, 0x00,
  0x19, 0x00, 0x00, 0x00, 0x0b, 0x00, 0x00, 0x00, 0xff, 0xff, 0xff, 0xff,
  0xe6, 0xfb, 0xff, 0xff, 0x14, 0x00, 0x00, 0x00, 0x00, 0x00, 0x00, 0x08,
  0x10, 0x00, 0x00, 0x00, 0x14, 0x00, 0x00, 0x00, 0x06, 0x00, 0x00, 0x00,
  0xb4, 0xb1, 0xff, 0xff, 0x01, 0x00, 0x00, 0x00, 0x30, 0x00, 0x00, 0x00,
  0x03, 0x00, 0x00, 0x00, 0x18, 0x00, 0x00, 0x00, 0x0b, 0x00, 0x00, 0x00,
  0xff, 0xff, 0xff, 0xff, 0x1a, 0xfc, 0xff, 0xff, 0x14, 0x00, 0x00, 0x00,
  0x00, 0x00, 0x00, 0x08, 0x10, 0x00, 0x00, 0x00, 0x14, 0x00, 0x00, 0x00,
  0x06, 0x00, 0x00, 0x00, 0xe8, 0xb1, 0xff, 0xff, 0x01, 0x00, 0x00, 0x00,
  0x2f, 0x00, 0x00, 0x00, 0x03, 0x00, 0x00, 0x00, 0x17, 0x00, 0x00, 0x00,
  0x0b, 0x00, 0x00, 0x00, 0xff, 0xff, 0xff, 0xff, 0x4e, 0xfc, 0xff, 0xff,
  0x14, 0x00, 0x00, 0x00, 0x00, 0x00, 0x00, 0x08, 0x10, 0x00, 0x00, 0x00,
  0x14, 0x00, 0x00, 0x00, 0x06, 0x00, 0x00, 0x00, 0x1c, 0xb2, 0xff, 0xff,
  0x01, 0x00, 0x00, 0x00, 0x2e, 0x00, 0x00, 0x00, 0x03, 0x00, 0x00, 0x00,
  0x16, 0x00, 0x00, 0x00, 0x0b, 0x00, 0x00, 0x00, 0xff, 0xff, 0xff, 0xff,
  0x82, 0xfc, 0xff, 0xff, 0x14, 0x00, 0x00, 0x00, 0x00, 0x00, 0x00, 0x08,
  0x10, 0x00, 0x00, 0x00, 0x14, 0x00, 0x00, 0x00, 0x06, 0x00, 0x00, 0x00,
  0x50, 0xb2, 0xff, 0xff, 0x01, 0x00, 0x00, 0x00, 0x2d, 0x00, 0x00, 0x00,
  0x03, 0x00, 0x00, 0x00, 0x2c, 0x00, 0x00, 0x00, 0x0a, 0x00, 0x00, 0x00,
  0xff, 0xff, 0xff, 0xff, 0xb6, 0xfc, 0xff, 0xff, 0x14, 0x00, 0x00, 0x00,
  0x00, 0x00, 0x00, 0x15, 0x10, 0x00, 0x00, 0x00, 0x14, 0x00, 0x00, 0x00,
  0x0a, 0x00, 0x00, 0x00, 0x84, 0xb2, 0xff, 0xff, 0x01, 0x00, 0x00, 0x00,
  0x2c, 0x00, 0x00, 0x00, 0x02, 0x00, 0x00, 0x00, 0x27, 0x00, 0x00, 0x00,
  0x2b, 0x00, 0x00, 0x00, 0x16, 0xfd, 0xff, 0xff, 0x0c, 0x00, 0x00, 0x00,
  0x10, 0x00, 0x00, 0x00, 0x0b, 0x00, 0x00, 0x00, 0x01, 0x00, 0x00, 0x00,
  0x2b, 0x00, 0x00, 0x00, 0x01, 0x00, 0x00, 0x00, 0x2a, 0x00, 0x00, 0x00,
  0x06, 0xfd, 0xff, 0xff, 0x14, 0x00, 0x00, 0x00, 0x00, 0x00, 0x00, 0x0b,
  0x10, 0x00, 0x00, 0x00, 0x14, 0x00, 0x00, 0x00, 0x07, 0x00, 0x00, 0x00,
  0xd4, 0xb2, 0xff, 0xff, 0x01, 0x00, 0x00, 0x00, 0x2a, 0x00, 0x00, 0x00,
  0x02, 0x00, 0x00, 0x00, 0x26, 0x00, 0x00, 0x00, 0x29, 0x00, 0x00, 0x00,
  0x36, 0xfd, 0xff, 0xff, 0x14, 0x00, 0x00, 0x00, 0x00, 0x00, 0x00, 0x15,
  0x10, 0x00, 0x00, 0x00, 0x14, 0x00, 0x00, 0x00, 0x0a, 0x00, 0x00, 0x00,
  0x04, 0xb3, 0xff, 0xff, 0x01, 0x00, 0x00, 0x00, 0x29, 0x00, 0x00, 0x00,
  0x02, 0x00, 0x00, 0x00, 0x24, 0x00, 0x00, 0x00, 0x28, 0x00, 0x00, 0x00,
  0x96, 0xfd, 0xff, 0xff, 0x0c, 0x00, 0x00, 0x00, 0x10, 0x00, 0x00, 0x00,
  0x0b, 0x00, 0x00, 0x00, 0x01, 0x00, 0x00, 0x00, 0x28, 0x00, 0x00, 0x00,
  0x01, 0x00, 0x00, 0x00, 0x22, 0x00, 0x00, 0x00, 0xb6, 0xfd, 0xff, 0xff,
  0x0c, 0x00, 0x00, 0x00, 0x10, 0x00, 0x00, 0x00, 0x09, 0x00, 0x00, 0x00,
  0x01, 0x00, 0x00, 0x00, 0x27, 0x00, 0x00, 0x00, 0x01, 0x00, 0x00, 0x00,
  0x23, 0x00, 0x00, 0x00, 0xa6, 0xfd, 0xff, 0xff, 0x14, 0x00, 0x00, 0x00,
  0x00, 0x00, 0x00, 0x15, 0x10, 0x00, 0x00, 0x00, 0x14, 0x00, 0x00, 0x00,
  0x0a, 0x00, 0x00, 0x00, 0x74, 0xb3, 0xff, 0xff, 0x01, 0x00, 0x00, 0x00,
  0x26, 0x00, 0x00, 0x00, 0x02, 0x00, 0x00, 0x00, 0x25, 0x00, 0x00, 0x00,
  0x1b, 0x00, 0x00, 0x00, 0x06, 0xfe, 0xff, 0xff, 0x0c, 0x00, 0x00, 0x00,
  0x10, 0x00, 0x00, 0x00, 0x09, 0x00, 0x00, 0x00, 0x01, 0x00, 0x00, 0x00,
  0x25, 0x00, 0x00, 0x00, 0x01, 0x00, 0x00, 0x00, 0x21, 0x00, 0x00, 0x00,
  0x26, 0xfe, 0xff, 0xff, 0x0c, 0x00, 0x00, 0x00, 0x10, 0x00, 0x00, 0x00,
  0x09, 0x00, 0x00, 0x00, 0x01, 0x00, 0x00, 0x00, 0x24, 0x00, 0x00, 0x00,
  0x01, 0x00, 0x00, 0x00, 0x20, 0x00, 0x00, 0x00, 0x16, 0xfe, 0xff, 0xff,
  0x14, 0x00, 0x00, 0x00, 0x00, 0x00, 0x00, 0x23, 0x14, 0x00, 0x00, 0x00,
  0x24, 0x00, 0x00, 0x00, 0x08, 0x00, 0x00, 0x00, 0x9e, 0xfe, 0xff, 0xff,
  0x04, 0x00, 0x00, 0x00, 0x04, 0x00, 0x00, 0x00, 0x20, 0x00, 0x00, 0x00,
  0x21, 0x00, 0x00, 0x00, 0x22, 0x00, 0x00, 0x00, 0x23, 0x00, 0x00, 0x00,
  0x02, 0x00, 0x00, 0x00, 0x09, 0x00, 0x00, 0x00, 0x1f, 0x00, 0x00, 0x00,
  0x56, 0xfe, 0xff, 0xff, 0x14, 0x00, 0x00, 0x00, 0x00, 0x00, 0x00, 0x0b,
  0x10, 0x00, 0x00, 0x00, 0x14, 0x00, 0x00, 0x00, 0x07, 0x00, 0x00, 0x00,
  0x24, 0xb4, 0xff, 0xff, 0x01, 0x00, 0x00, 0x00, 0x1f, 0x00, 0x00, 0x00,
  0x02, 0x00, 0x00, 0x00, 0x1e, 0x00, 0x00, 0x00, 0x01, 0x00, 0x00, 0x00,
  0x86, 0xfe, 0xff, 0xff, 0x14, 0x00, 0x00, 0x00, 0x00, 0x00, 0x00, 0x0b,
  0x10, 0x00, 0x00, 0x00, 0x14, 0x00, 0x00, 0x00, 0x07, 0x00, 0x00, 0x00,
  0x54, 0xb4, 0xff, 0xff, 0x01, 0x00, 0x00, 0x00, 0x1e, 0x00, 0x00, 0x00,
  0x02, 0x00, 0x00, 0x00, 0x1d, 0x00, 0x00, 0x00, 0x1c, 0x00, 0x00, 0x00,
  0xb6, 0xfe, 0xff, 0xff, 0x14, 0x00, 0x00, 0x00, 0x00, 0x00, 0x00, 0x08,
  0x10, 0x00, 0x00, 0x00, 0x14, 0x00, 0x00, 0x00, 0x06, 0x00, 0x00, 0x00,
  0x84, 0xb4, 0xff, 0xff, 0x01, 0x00, 0x00, 0x00, 0x1d, 0x00, 0x00, 0x00,
  0x03, 0x00, 0x00, 0x00, 0x11, 0x00, 0x00, 0x00, 0x0b, 0x00, 0x00, 0x00,
  0xff, 0xff, 0xff, 0xff, 0xea, 0xfe, 0xff, 0xff, 0x14, 0x00, 0x00, 0x00,
  0x00, 0x00, 0x00, 0x08, 0x10, 0x00, 0x00, 0x00, 0x14, 0x00, 0x00, 0x00,
  0x06, 0x00, 0x00, 0x00, 0xb8, 0xb4, 0xff, 0xff, 0x01, 0x00, 0x00, 0x00,
  0x1c, 0x00, 0x00, 0x00, 0x03, 0x00, 0x00, 0x00, 0x1b, 0x00, 0x00, 0x00,
  0x0a, 0x00, 0x00, 0x00, 0xff, 0xff, 0xff, 0xff, 0x4e, 0xff, 0xff, 0xff,
  0x0c, 0x00, 0x00, 0x00, 0x10, 0x00, 0x00, 0x00, 0x05, 0x00, 0x00, 0x00,
  0x01, 0x00, 0x00, 0x00, 0x1b, 0x00, 0x00, 0x00, 0x02, 0x00, 0x00, 0x00,
  0x1a, 0x00, 0x00, 0x00, 0x05, 0x00, 0x00, 0x00, 0x42, 0xff, 0xff, 0xff,
  0x14, 0x00, 0x00, 0x00, 0x00, 0x00, 0x00, 0x3b, 0x14, 0x00, 0x00, 0x00,
  0x18, 0x00, 0x00, 0x00, 0x04, 0x00, 0x00, 0x00, 0xca, 0xff, 0xff, 0xff,
  0x02, 0x00, 0x00, 0x00, 0x01, 0x00, 0x00, 0x00, 0x1a, 0x00, 0x00, 0x00,
  0x02, 0x00, 0x00, 0x00, 0x0f, 0x00, 0x00, 0x00, 0x04, 0x00, 0x00, 0x00,
  0x76, 0xff, 0xff, 0xff, 0x1c, 0x00, 0x00, 0x00, 0x00, 0x00, 0x00, 0x40,
  0x1c, 0x00, 0x00, 0x00, 0x40, 0x00, 0x00, 0x00, 0x03, 0x00, 0x00, 0x00,
  0x00, 0x00, 0x06, 0x00, 0x08, 0x00, 0x04, 0x00, 0x06, 0x00, 0x00, 0x00,
  0x09, 0x00, 0x00, 0x00, 0x09, 0x00, 0x00, 0x00, 0x11, 0x00, 0x00, 0x00,
  0x12, 0x00, 0x00, 0x00, 0x13, 0x00, 0x00, 0x00, 0x14, 0x00, 0x00, 0x00,
  0x15, 0x00, 0x00, 0x00, 0x16, 0x00, 0x00, 0x00, 0x17, 0x00, 0x00, 0x00,
  0x18, 0x00, 0x00, 0x00, 0x19, 0x00, 0x00, 0x00, 0x01, 0x00, 0x00, 0x00,
  0x10, 0x00, 0x00, 0x00, 0x00, 0x00, 0x0a, 0x00, 0x10, 0x00, 0x0c, 0x00,
  0x08, 0x00, 0x04, 0x00, 0x0a, 0x00, 0x00, 0x00, 0x0c, 0x00, 0x00, 0x00,
  0x10, 0x00, 0x00, 0x00, 0x02, 0x00, 0x00, 0x00, 0x01, 0x00, 0x00, 0x00,
  0x10, 0x00, 0x00, 0x00, 0x02, 0x00, 0x00, 0x00, 0x00, 0x00, 0x00, 0x00,
  0x06, 0x00, 0x00, 0x00, 0x00, 0x00, 0x0e, 0x00, 0x1a, 0x00, 0x14, 0x00,
  0x10, 0x00, 0x0c, 0x00, 0x0b, 0x00, 0x04, 0x00, 0x0e, 0x00, 0x00, 0x00,
  0x24, 0x00, 0x00, 0x00, 0x00, 0x00, 0x00, 0x20, 0x24, 0x00, 0x00, 0x00,
  0x28, 0x00, 0x00, 0x00, 0x01, 0x00, 0x00, 0x00, 0x00, 0x00, 0x0e, 0x00,
  0x08, 0x00, 0x00, 0x00, 0x00, 0x00, 0x00, 0x00, 0x00, 0x00, 0x04, 0x00,
  0x0e, 0x00, 0x00, 0x00, 0x01, 0x00, 0x00, 0x00, 0x01, 0x00, 0x00, 0x00,
  0x0f, 0x00, 0x00, 0x00, 0x04, 0x00, 0x00, 0x00, 0x0e, 0x00, 0x00, 0x00,
  0x08, 0x00, 0x00, 0x00, 0x07, 0x00, 0x00, 0x00, 0x07, 0x00, 0x00, 0x00,
  0x00, 0x00, 0x0e, 0x00, 0x16, 0x00, 0x00, 0x00, 0x10, 0x00, 0x0c, 0x00,
  0x0b, 0x00, 0x04, 0x00, 0x0e, 0x00, 0x00, 0x00, 0x18, 0x00, 0x00, 0x00,
  0x00, 0x00, 0x00, 0x37, 0x18, 0x00, 0x00, 0x00, 0x1c, 0x00, 0x00, 0x00,
  0x00, 0x00, 0x06, 0x00, 0x08, 0x00, 0x07, 0x00, 0x06, 0x00, 0x00, 0x00,
  0x00, 0x00, 0x00, 0x02, 0x01, 0x00, 0x00, 0x00, 0x0e, 0x00, 0x00, 0x00,
  0x01, 0x00, 0x00, 0x00, 0x00, 0x00, 0x00, 0x00, 0x01, 0x00, 0x00, 0x00,
  0xb6, 0x00, 0x00, 0x00, 0x01, 0x00, 0x00, 0x00, 0x00, 0x00, 0x00, 0x00,
  0xb7, 0x00, 0x00, 0x00, 0xd4, 0x48, 0x00, 0x00, 0x58, 0x48, 0x00, 0x00,
  0xe4, 0x47, 0x00, 0x00, 0x88, 0x47, 0x00, 0x00, 0x38, 0x47, 0x00, 0x00,
  0xd8, 0x46, 0x00, 0x00, 0x84, 0x46, 0x00, 0x00, 0x28, 0x46, 0x00, 0x00,
  0xd0, 0x45, 0x00, 0x00, 0x74, 0x45, 0x00, 0x00, 0x1c, 0x45, 0x00, 0x00,
  0xc4, 0x44, 0x00, 0x00, 0x74, 0x44, 0x00, 0x00, 0x24, 0x44, 0x00, 0x00,
  0xd8, 0x43, 0x00, 0x00, 0x88, 0x43, 0x00, 0x00, 0x20, 0x43, 0x00, 0x00,
  0xc4, 0x42, 0x00, 0x00, 0x64, 0x42, 0x00, 0x00, 0x04, 0x42, 0x00, 0x00,
  0xa4, 0x41, 0x00, 0x00, 0x44, 0x41, 0x00, 0x00, 0xe4, 0x40, 0x00, 0x00,
  0x84, 0x40, 0x00, 0x00, 0x24, 0x40, 0x00, 0x00, 0xc4, 0x3f, 0x00, 0x00,
  0x70, 0x3f, 0x00, 0x00, 0x14, 0x3f, 0x00, 0x00, 0xac, 0x3e, 0x00, 0x00,
  0x44, 0x3e, 0x00, 0x00, 0xe0, 0x3d, 0x00, 0x00, 0x78, 0x3d, 0x00, 0x00,
  0x14, 0x3d, 0x00, 0x00, 0xac, 0x3c, 0x00, 0x00, 0x44, 0x3c, 0x00, 0x00,
  0xdc, 0x3b, 0x00, 0x00, 0x74, 0x3b, 0x00, 0x00, 0x0c, 0x3b, 0x00, 0x00,
  0xa8, 0x3a, 0x00, 0x00, 0x40, 0x3a, 0x00, 0x00, 0xdc, 0x39, 0x00, 0x00,
  0x78, 0x39, 0x00, 0x00, 0x14, 0x39, 0x00, 0x00, 0xac, 0x38, 0x00, 0x00,
  0x48, 0x38, 0x00, 0x00, 0xe0, 0x37, 0x00, 0x00, 0x78, 0x37, 0x00, 0x00,
  0x10, 0x37, 0x00, 0x00, 0xa8, 0x36, 0x00, 0x00, 0x40, 0x36, 0x00, 0x00,
  0xd8, 0x35, 0x00, 0x00, 0x74, 0x35, 0x00, 0x00, 0x0c, 0x35, 0x00, 0x00,
  0xa4, 0x34, 0x00, 0x00, 0x3c, 0x34, 0x00, 0x00, 0xd4, 0x33, 0x00, 0x00,
  0x6c, 0x33, 0x00, 0x00, 0x04, 0x33, 0x00, 0x00, 0x9c, 0x32, 0x00, 0x00,
  0x38, 0x32, 0x00, 0x00, 0xd0, 0x31, 0x00, 0x00, 0x68, 0x31, 0x00, 0x00,
  0x04, 0x31, 0x00, 0x00, 0xa0, 0x30, 0x00, 0x00, 0x38, 0x30, 0x00, 0x00,
  0xd4, 0x2f, 0x00, 0x00, 0x6c, 0x2f, 0x00, 0x00, 0x04, 0x2f, 0x00, 0x00,
  0xa0, 0x2e, 0x00, 0x00, 0x38, 0x2e, 0x00, 0x00, 0xd0, 0x2d, 0x00, 0x00,
  0x68, 0x2d, 0x00, 0x00, 0x00, 0x2d, 0x00, 0x00, 0x98, 0x2c, 0x00, 0x00,
  0x30, 0x2c, 0x00, 0x00, 0xc8, 0x2b, 0x00, 0x00, 0x64, 0x2b, 0x00, 0x00,
  0xfc, 0x2a, 0x00, 0x00, 0x94, 0x2a, 0x00, 0x00, 0x30, 0x2a, 0x00, 0x00,
  0xcc, 0x29, 0x00, 0x00, 0x64, 0x29, 0x00, 0x00, 0x00, 0x29, 0x00, 0x00,
  0x98, 0x28, 0x00, 0x00, 0x30, 0x28, 0x00, 0x00, 0xcc, 0x27, 0x00, 0x00,
  0x64, 0x27, 0x00, 0x00, 0xfc, 0x26, 0x00, 0x00, 0x94, 0x26, 0x00, 0x00,
  0x2c, 0x26, 0x00, 0x00, 0xc4, 0x25, 0x00, 0x00, 0x58, 0x25, 0x00, 0x00,
  0xf4, 0x24, 0x00, 0x00, 0x88, 0x24, 0x00, 0x00, 0x20, 0x24, 0x00, 0x00,
  0xb8, 0x23, 0x00, 0x00, 0x50, 0x23, 0x00, 0x00, 0xec, 0x22, 0x00, 0x00,
  0x84, 0x22, 0x00, 0x00, 0x1c, 0x22, 0x00, 0x00, 0xb4, 0x21, 0x00, 0x00,
  0x4c, 0x21, 0x00, 0x00, 0xe8, 0x20, 0x00, 0x00, 0x80, 0x20, 0x00, 0x00,
  0x18, 0x20, 0x00, 0x00, 0xb0, 0x1f, 0x00, 0x00, 0x48, 0x1f, 0x00, 0x00,
  0xe0, 0x1e, 0x00, 0x00, 0x74, 0x1e, 0x00, 0x00, 0x08, 0x1e, 0x00, 0x00,
  0xa0, 0x1d, 0x00, 0x00, 0x34, 0x1d, 0x00, 0x00, 0xcc, 0x1c, 0x00, 0x00,
  0x64, 0x1c, 0x00, 0x00, 0x00, 0x1c, 0x00, 0x00, 0x98, 0x1b, 0x00, 0x00,
  0x30, 0x1b, 0x00, 0x00, 0xc4, 0x1a, 0x00, 0x00, 0x5c, 0x1a, 0x00, 0x00,
  0xf4, 0x19, 0x00, 0x00, 0x8c, 0x19, 0x00, 0x00, 0x24, 0x19, 0x00, 0x00,
  0xbc, 0x18, 0x00, 0x00, 0x54, 0x18, 0x00, 0x00, 0xe8, 0x17, 0x00, 0x00,
  0x7c, 0x17, 0x00, 0x00, 0x10, 0x17, 0x00, 0x00, 0xa8, 0x16, 0x00, 0x00,
  0x40, 0x16, 0x00, 0x00, 0xd8, 0x15, 0x00, 0x00, 0x70, 0x15, 0x00, 0x00,
  0x08, 0x15, 0x00, 0x00, 0xa0, 0x14, 0x00, 0x00, 0x38, 0x14, 0x00, 0x00,
  0xd0, 0x13, 0x00, 0x00, 0x68, 0x13, 0x00, 0x00, 0x00, 0x13, 0x00, 0x00,
  0x98, 0x12, 0x00, 0x00, 0x30, 0x12, 0x00, 0x00, 0xc8, 0x11, 0x00, 0x00,
  0x5c, 0x11, 0x00, 0x00, 0xf0, 0x10, 0x00, 0x00, 0x84, 0x10, 0x00, 0x00,
  0x1c, 0x10, 0x00, 0x00, 0xb4, 0x0f, 0x00, 0x00, 0x4c, 0x0f, 0x00, 0x00,
  0xe4, 0x0e, 0x00, 0x00, 0x7c, 0x0e, 0x00, 0x00, 0x14, 0x0e, 0x00, 0x00,
  0xac, 0x0d, 0x00, 0x00, 0x44, 0x0d, 0x00, 0x00, 0xdc, 0x0c, 0x00, 0x00,
  0x74, 0x0c, 0x00, 0x00, 0x0c, 0x0c, 0x00, 0x00, 0xa4, 0x0b, 0x00, 0x00,
  0x3c, 0x0b, 0x00, 0x00, 0xd0, 0x0a, 0x00, 0x00, 0x64, 0x0a, 0x00, 0x00,
  0xf8, 0x09, 0x00, 0x00, 0x90, 0x09, 0x00, 0x00, 0x28, 0x09, 0x00, 0x00,
  0xc0, 0x08, 0x00, 0x00, 0x58, 0x08, 0x00, 0x00, 0xf0, 0x07, 0x00, 0x00,
  0x88, 0x07, 0x00, 0x00, 0x1c, 0x07, 0x00, 0x00, 0xb4, 0x06, 0x00, 0x00,
  0x4c, 0x06, 0x00, 0x00, 0xe4, 0x05, 0x00, 0x00, 0x7c, 0x05, 0x00, 0x00,
  0x14, 0x05, 0x00, 0x00, 0xac, 0x04, 0x00, 0x00, 0x40, 0x04, 0x00, 0x00,
  0xd4, 0x03, 0x00, 0x00, 0x68, 0x03, 0x00, 0x00, 0x00, 0x03, 0x00, 0x00,
  0x98, 0x02, 0x00, 0x00, 0x30, 0x02, 0x00, 0x00, 0xc8, 0x01, 0x00, 0x00,
  0x60, 0x01, 0x00, 0x00, 0xf8, 0x00, 0x00, 0x00, 0x60, 0x00, 0x00, 0x00,
  0x04, 0x00, 0x00, 0x00, 0x1e, 0xba, 0xff, 0xff, 0x00, 0x00, 0x00, 0x01,
  0x14, 0x00, 0x00, 0x00, 0x1c, 0x00, 0x00, 0x00, 0x1c, 0x00, 0x00, 0x00,
  0xb7, 0x00, 0x00, 0x00, 0x34, 0x00, 0x00, 0x00, 0x02, 0x00, 0x00, 0x00,
  0xff, 0xff, 0xff, 0xff, 0x01, 0x00, 0x00, 0x00, 0x6c, 0xb9, 0xff, 0xff,
  0x19, 0x00, 0x00, 0x00, 0x53, 0x74, 0x61, 0x74, 0x65, 0x66, 0x75, 0x6c,
  0x50, 0x61, 0x72, 0x74, 0x69, 0x74, 0x69, 0x6f, 0x6e, 0x65, 0x64, 0x43,
  0x61, 0x6c, 0x6c, 0x3a, 0x30, 0x00, 0x00, 0x00, 0x02, 0x00, 0x00, 0x00,
  0x01, 0x00, 0x00, 0x00, 0x01, 0x00, 0x00, 0x00, 0x76, 0xba, 0xff, 0xff,
  0x00, 0x00, 0x00, 0x01, 0x14, 0x00, 0x00, 0x00, 0x1c, 0x00, 0x00, 0x00,
  0x1c, 0x00, 0x00, 0x00, 0xb6, 0x00, 0x00, 0x00, 0x70, 0x00, 0x00, 0x00,
  0x02, 0x00, 0x00, 0x00, 0xff, 0xff, 0xff, 0xff, 0x08, 0x00, 0x00, 0x00,
  0xc4, 0xb9, 0xff, 0xff, 0x55, 0x00, 0x00, 0x00, 0x73, 0x65, 0x71, 0x75,
  0x65, 0x6e, 0x74, 0x69, 0x61, 0x6c, 0x5f, 0x39, 0x2f, 0x64, 0x65, 0x6e,
  0x73, 0x65, 0x5f, 0x31, 0x39, 0x2f, 0x4d, 0x61, 0x74, 0x4d, 0x75, 0x6c,
  0x3b, 0x73, 0x65, 0x71, 0x75, 0x65, 0x6e, 0x74, 0x69, 0x61, 0x6c, 0x5f,
  0x39, 0x2f, 0x64, 0x65, 0x6e, 0x73, 0x65, 0x5f, 0x31, 0x39, 0x2f, 0x52,
  0x65, 0x6c, 0x75, 0x3b, 0x73, 0x65, 0x71, 0x75, 0x65, 0x6e, 0x74, 0x69,
  0x61, 0x6c, 0x5f, 0x39, 0x2f, 0x64, 0x65, 0x6e, 0x73, 0x65, 0x5f, 0x31,
  0x39, 0x2f, 0x42, 0x69, 0x61, 0x73, 0x41, 0x64, 0x64, 0x00, 0x00, 0x00,
  0x02, 0x00, 0x00, 0x00, 0x01, 0x00, 0x00, 0x00, 0x08, 0x00, 0x00, 0x00,
  0x0a, 0xbb, 0xff, 0xff, 0x00, 0x00, 0x00, 0x01, 0x14, 0x00, 0x00, 0x00,
  0x1c, 0x00, 0x00, 0x00, 0x1c, 0x00, 0x00, 0x00, 0xb5, 0x00, 0x00, 0x00,
  0x40, 0x00, 0x00, 0x00, 0x02, 0x00, 0x00, 0x00, 0xff, 0xff, 0xff, 0xff,
  0x0c, 0x00, 0x00, 0x00, 0x58, 0xba, 0xff, 0xff, 0x24, 0x00, 0x00, 0x00,
  0x73, 0x65, 0x71, 0x75, 0x65, 0x6e, 0x74, 0x69, 0x61, 0x6c, 0x5f, 0x39,
  0x2f, 0x6c, 0x73, 0x74, 0x6d, 0x5f, 0x34, 0x2f, 0x6c, 0x73, 0x74, 0x6d,
  0x5f, 0x63, 0x65, 0x6c, 0x6c, 0x2f, 0x6d, 0x75, 0x6c, 0x5f, 0x32, 0x36,
  0x00, 0x00, 0x00, 0x00, 0x02, 0x00, 0x00, 0x00, 0x01, 0x00, 0x00, 0x00,
  0x0c, 0x00, 0x00, 0x00, 0x6e, 0xbb, 0xff, 0xff, 0x00, 0x00, 0x00, 0x01,
  0x14, 0x00, 0x00, 0x00, 0x1c, 0x00, 0x00, 0x00, 0x1c, 0x00, 0x00, 0x00,
  0xb4, 0x00, 0x00, 0x00, 0x40, 0x00, 0x00, 0x00, 0x02, 0x00, 0x00, 0x00,
  0xff, 0xff, 0xff, 0xff, 0x0c, 0x00, 0x00, 0x00, 0xbc, 0xba, 0xff, 0xff,
  0x25, 0x00, 0x00, 0x00, 0x73, 0x65, 0x71, 0x75, 0x65, 0x6e, 0x74, 0x69,
  0x61, 0x6c, 0x5f, 0x39, 0x2f, 0x6c, 0x73, 0x74, 0x6d, 0x5f, 0x34, 0x2f,
  0x6c, 0x73, 0x74, 0x6d, 0x5f, 0x63, 0x65, 0x6c, 0x6c, 0x2f, 0x54, 0x61,
  0x6e, 0x68, 0x5f, 0x31, 0x37, 0x00, 0x00, 0x00, 0x02, 0x00, 0x00, 0x00,
  0x01, 0x00, 0x00, 0x00, 0x0c, 0x00, 0x00, 0x00, 0xd2, 0xbb, 0xff, 0xff,
  0x00, 0x00, 0x00, 0x01, 0x14, 0x00, 0x00, 0x00, 0x1c, 0x00, 0x00, 0x00,
  0x1c, 0x00, 0x00, 0x00, 0xb3, 0x00, 0x00, 0x00, 0x40, 0x00, 0x00, 0x00,
  0x02, 0x00, 0x00, 0x00, 0xff, 0xff, 0xff, 0xff, 0x0c, 0x00, 0x00, 0x00,
  0x20, 0xbb, 0xff, 0xff, 0x24, 0x00, 0x00, 0x00, 0x73, 0x65, 0x71, 0x75,
  0x65, 0x6e, 0x74, 0x69, 0x61, 0x6c, 0x5f, 0x39, 0x2f, 0x6c, 0x73, 0x74,
  0x6d, 0x5f, 0x34, 0x2f, 0x6c, 0x73, 0x74, 0x6d, 0x5f, 0x63, 0x65, 0x6c,
  0x6c, 0x2f, 0x61, 0x64, 0x64, 0x5f, 0x31, 0x37, 0x00, 0x00, 0x00, 0x00,
  0x02, 0x00, 0x00, 0x00, 0x01, 0x00, 0x00, 0x00, 0x0c, 0x00, 0x00, 0x00,
  0x36, 0xbc, 0xff, 0xff, 0x00, 0x00, 0x00, 0x01, 0x14, 0x00, 0x00, 0x00,
  0x1c, 0x00, 0x00, 0x00, 0x1c, 0x00, 0x00, 0x00, 0xb2, 0x00, 0x00, 0x00,
  0x40, 0x00, 0x00, 0x00, 0x02, 0x00, 0x00, 0x00, 0xff, 0xff, 0xff, 0xff,
  0x0c, 0x00, 0x00, 0x00, 0x84, 0xbb, 0xff, 0xff, 0x24, 0x00, 0x00, 0x00,
  0x73, 0x65, 0x71, 0x75, 0x65, 0x6e, 0x74, 0x69, 0x61, 0x6c, 0x5f, 0x39,
  0x2f, 0x6c, 0x73, 0x74, 0x6d, 0x5f, 0x34, 0x2f, 0x6c, 0x73, 0x74, 0x6d,
  0x5f, 0x63, 0x65, 0x6c, 0x6c, 0x2f, 0x6d, 0x75, 0x6c, 0x5f, 0x32, 0x34,
  0x00, 0x00, 0x00, 0x00, 0x02, 0x00, 0x00, 0x00, 0x01, 0x00, 0x00, 0x00,
  0x0c, 0x00, 0x00, 0x00, 0x9a, 0xbc, 0xff, 0xff, 0x00, 0x00, 0x00, 0x01,
  0x14, 0x00, 0x00, 0x00, 0x1c, 0x00, 0x00, 0x00, 0x1c, 0x00, 0x00, 0x00,
  0xb1, 0x00, 0x00, 0x00, 0x40, 0x00, 0x00, 0x00, 0x02, 0x00, 0x00, 0x00,
  0xff, 0xff, 0xff, 0xff, 0x0c, 0x00, 0x00, 0x00, 0xe8, 0xbb, 0xff, 0xff,
  0x24, 0x00, 0x00, 0x00, 0x73, 0x65, 0x71, 0x75, 0x65, 0x6e, 0x74, 0x69,
  0x61, 0x6c, 0x5f, 0x39, 0x2f, 0x6c, 0x73, 0x74, 0x6d, 0x5f, 0x34, 0x2f,
  0x6c, 0x73, 0x74, 0x6d, 0x5f, 0x63, 0x65, 0x6c, 0x6c, 0x2f, 0x6d, 0x75,
  0x6c, 0x5f, 0x32, 0x35, 0x00, 0x00, 0x00, 0x00, 0x02, 0x00, 0x00, 0x00,
  0x01, 0x00, 0x00, 0x00, 0x0c, 0x00, 0x00, 0x00, 0xfe, 0xbc, 0xff, 0xff,
  0x00, 0x00, 0x00, 0x01, 0x14, 0x00, 0x00, 0x00, 0x1c, 0x00, 0x00, 0x00,
  0x1c, 0x00, 0x00, 0x00, 0xb0, 0x00, 0x00, 0x00, 0x40, 0x00, 0x00, 0x00,
  0x02, 0x00, 0x00, 0x00, 0xff, 0xff, 0xff, 0xff, 0x0c, 0x00, 0x00, 0x00,
  0x4c, 0xbc, 0xff, 0xff, 0x25, 0x00, 0x00, 0x00, 0x73, 0x65, 0x71, 0x75,
  0x65, 0x6e, 0x74, 0x69, 0x61, 0x6c, 0x5f, 0x39, 0x2f, 0x6c, 0x73, 0x74,
  0x6d, 0x5f, 0x34, 0x2f, 0x6c, 0x73, 0x74, 0x6d, 0x5f, 0x63, 0x65, 0x6c,
  0x6c, 0x2f, 0x54, 0x61, 0x6e, 0x68, 0x5f, 0x31, 0x36, 0x00, 0x00, 0x00,
  0x02, 0x00, 0x00, 0x00, 0x01, 0x00, 0x00, 0x00, 0x0c, 0x00, 0x00, 0x00,
  0x62, 0xbd, 0xff, 0xff, 0x00, 0x00, 0x00, 0x01, 0x14, 0x00, 0x00, 0x00,
  0x1c, 0x00, 0x00, 0x00, 0x1c, 0x00, 0x00, 0x00, 0xaf, 0x00, 0x00, 0x00,
  0x44, 0x00, 0x00, 0x00, 0x02, 0x00, 0x00, 0x00, 0xff, 0xff, 0xff, 0xff,
  0x0c, 0x00, 0x00, 0x00, 0xb0, 0xbc, 0xff, 0xff, 0x28, 0x00, 0x00, 0x00,
  0x73, 0x65, 0x71, 0x75, 0x65, 0x6e, 0x74, 0x69, 0x61, 0x6c, 0x5f, 0x39,
  0x2f, 0x6c, 0x73, 0x74, 0x6d, 0x5f, 0x34, 0x2f, 0x6c, 0x73, 0x74, 0x6d,
  0x5f, 0x63, 0x65, 0x6c, 0x6c, 0x2f, 0x53, 0x69, 0x67, 0x6d, 0x6f, 0x69,
  0x64, 0x5f, 0x32, 0x36, 0x00, 0x00, 0x00, 0x00, 0x02, 0x00, 0x00, 0x00,
  0x01, 0x00, 0x00, 0x00, 0x0c, 0x00, 0x00, 0x00, 0xca, 0xbd, 0xff, 0xff,
  0x00, 0x00, 0x00, 0x01, 0x14, 0x00, 0x00, 0x00, 0x1c, 0x00, 0x00, 0x00,
  0x1c, 0x00, 0x00, 0x00, 0xae, 0x00, 0x00, 0x00, 0x44, 0x00, 0x00, 0x00,
  0x02, 0x00, 0x00, 0x00, 0xff, 0xff, 0xff, 0xff, 0x0c, 0x00, 0x00, 0x00,
  0x18, 0xbd, 0xff, 0xff, 0x28, 0x00, 0x00, 0x00, 0x73, 0x65, 0x71, 0x75,
  0x65, 0x6e, 0x74, 0x69, 0x61, 0x6c, 0x5f, 0x39, 0x2f, 0x6c, 0x73, 0x74,
  0x6d, 0x5f, 0x34, 0x2f, 0x6c, 0x73, 0x74, 0x6d, 0x5f, 0x63, 0x65, 0x6c,
  0x6c, 0x2f, 0x53, 0x69, 0x67, 0x6d, 0x6f, 0x69, 0x64, 0x5f, 0x32, 0x35,
  0x00, 0x00, 0x00, 0x00, 0x02, 0x00, 0x00, 0x00, 0x01, 0x00, 0x00, 0x00,
  0x0c, 0x00, 0x00, 0x00, 0x32, 0xbe, 0xff, 0xff, 0x00, 0x00, 0x00, 0x01,
  0x14, 0x00, 0x00, 0x00, 0x1c, 0x00, 0x00, 0x00, 0x1c, 0x00, 0x00, 0x00,
  0xad, 0x00, 0x00, 0x00, 0x44, 0x00, 0x00, 0x00, 0x02, 0x00, 0x00, 0x00,
  0xff, 0xff, 0xff, 0xff, 0x0c, 0x00, 0x00, 0x00, 0x80, 0xbd, 0xff, 0xff,
  0x28, 0x00, 0x00, 0x00, 0x73, 0x65, 0x71, 0x75, 0x65, 0x6e, 0x74, 0x69,
  0x61, 0x6c, 0x5f, 0x39, 0x2f, 0x6c, 0x73, 0x74, 0x6d, 0x5f, 0x34, 0x2f,
  0x6c, 0x73, 0x74, 0x6d, 0x5f, 0x63, 0x65, 0x6c, 0x6c, 0x2f, 0x53, 0x69,
  0x67, 0x6d, 0x6f, 0x69, 0x64, 0x5f, 0x32, 0x34, 0x00, 0x00, 0x00, 0x00,
  0x02, 0x00, 0x00, 0x00, 0x01, 0x00, 0x00, 0x00, 0x0c, 0x00, 0x00, 0x00,
  0x9a, 0xbe, 0xff, 0xff, 0x00, 0x00, 0x00, 0x01, 0x14, 0x00, 0x00, 0x00,
  0x1c, 0x00, 0x00, 0x00, 0x1c, 0x00, 0x00, 0x00, 0xac, 0x00, 0x00, 0x00,
  0x40, 0x00, 0x00, 0x00, 0x02, 0x00, 0x00, 0x00, 0xff, 0xff, 0xff, 0xff,
  0x0c, 0x00, 0x00, 0x00, 0xe8, 0xbd, 0xff, 0xff, 0x26, 0x00, 0x00, 0x00,
  0x73, 0x65, 0x71, 0x75, 0x65, 0x6e, 0x74, 0x69, 0x61, 0x6c, 0x5f, 0x39,
  0x2f, 0x6c, 0x73, 0x74, 0x6d, 0x5f, 0x34, 0x2f, 0x6c, 0x73, 0x74, 0x6d,
  0x5f, 0x63, 0x65, 0x6c, 0x6c, 0x2f, 0x73, 0x70, 0x6c, 0x69, 0x74, 0x5f,
  0x38, 0x33, 0x00, 0x00, 0x02, 0x00, 0x00, 0x00, 0x01, 0x00, 0x00, 0x00,
  0x0c, 0x00, 0x00, 0x00, 0xfe, 0xbe, 0xff, 0xff, 0x00, 0x00, 0x00, 0x01,
  0x14, 0x00, 0x00, 0x00, 0x1c, 0x00, 0x00, 0x00, 0x1c, 0x00, 0x00, 0x00,
  0xab, 0x00, 0x00, 0x00, 0x40, 0x00, 0x00, 0x00, 0x02, 0x00, 0x00, 0x00,
  0xff, 0xff, 0xff, 0xff, 0x0c, 0x00, 0x00, 0x00, 0x4c, 0xbe, 0xff, 0xff,
  0x26, 0x00, 0x00, 0x00, 0x73, 0x65, 0x71, 0x75, 0x65, 0x6e, 0x74, 0x69,
  0x61, 0x6c, 0x5f, 0x39, 0x2f, 0x6c, 0x73, 0x74, 0x6d, 0x5f, 0x34, 0x2f,
  0x6c, 0x73, 0x74, 0x6d, 0x5f, 0x63, 0x65, 0x6c, 0x6c, 0x2f, 0x73, 0x70,
  0x6c, 0x69, 0x74, 0x5f, 0x38, 0x32, 0x00, 0x00, 0x02, 0x00, 0x00, 0x00,
  0x01, 0x00, 0x00, 0x00, 0x0c, 0x00, 0x00, 0x00, 0x62, 0xbf, 0xff, 0xff,
  0x00, 0x00, 0x00, 0x01, 0x14, 0x00, 0x00, 0x00, 0x1c, 0x00, 0x00, 0x00,
  0x1c, 0x00, 0x00, 0x00, 0xaa, 0x00, 0x00, 0x00, 0x40, 0x00, 0x00, 0x00,
  0x02, 0x00, 0x00, 0x00, 0xff, 0xff, 0xff, 0xff, 0x0c, 0x00, 0x00, 0x00,
  0xb0, 0xbe, 0xff, 0xff, 0x26, 0x00, 0x00, 0x00, 0x73, 0x65, 0x71, 0x75,
  0x65, 0x6e, 0x74, 0x69, 0x61, 0x6c, 0x5f, 0x39, 0x2f, 0x6c, 0x73, 0x74,
  0x6d, 0x5f, 0x34, 0x2f, 0x6c, 0x73, 0x74, 0x6d, 0x5f, 0x63, 0x65, 0x6c,
  0x6c, 0x2f, 0x73, 0x70, 0x6c, 0x69, 0x74, 0x5f, 0x38, 0x31, 0x00, 0x00,
  0x02, 0x00, 0x00, 0x00, 0x01, 0x00, 0x00, 0x00, 0x0c, 0x00, 0x00, 0x00,
  0xc6, 0xbf, 0xff, 0xff, 0x00, 0x00, 0x00, 0x01, 0x14, 0x00, 0x00, 0x00,
  0x1c, 0x00, 0x00, 0x00, 0x1c, 0x00, 0x00, 0x00, 0xa9, 0x00, 0x00, 0x00,
  0x40, 0x00, 0x00, 0x00, 0x02, 0x00, 0x00, 0x00, 0xff, 0xff, 0xff, 0xff,
  0x0c, 0x00, 0x00, 0x00, 0x14, 0xbf, 0xff, 0xff, 0x25, 0x00, 0x00, 0x00,
  0x73, 0x65, 0x71, 0x75, 0x65, 0x6e, 0x74, 0x69, 0x61, 0x6c, 0x5f, 0x39,
  0x2f, 0x6c, 0x73, 0x74, 0x6d, 0x5f, 0x34, 0x2f, 0x6c, 0x73, 0x74, 0x6d,
  0x5f, 0x63, 0x65, 0x6c, 0x6c, 0x2f, 0x73, 0x70, 0x6c, 0x69, 0x74, 0x5f,
  0x38, 0x00, 0x00, 0x00, 0x02, 0x00, 0x00, 0x00, 0x01, 0x00, 0x00, 0x00,
  0x0c, 0x00, 0x00, 0x00, 0x2a, 0xc0, 0xff, 0xff, 0x00, 0x00, 0x00, 0x01,
  0x14, 0x00, 0x00, 0x00, 0x1c, 0x00, 0x00, 0x00, 0x1c, 0x00, 0x00, 0x00,
  0xa8, 0x00, 0x00, 0x00, 0x40, 0x00, 0x00, 0x00, 0x02, 0x00, 0x00, 0x00,
  0xff, 0xff, 0xff, 0xff, 0x30, 0x00, 0x00, 0x00, 0x78, 0xbf, 0xff, 0xff,
  0x27, 0x00, 0x00, 0x00, 0x73, 0x65, 0x71, 0x75, 0x65, 0x6e, 0x74, 0x69,
  0x61, 0x6c, 0x5f, 0x39, 0x2f, 0x6c, 0x73, 0x74, 0x6d, 0x5f, 0x34, 0x2f,
  0x6c, 0x73, 0x74, 0x6d, 0x5f, 0x63, 0x65, 0x6c, 0x6c, 0x2f, 0x42, 0x69,
  0x61, 0x73, 0x41, 0x64, 0x64, 0x5f, 0x38, 0x00, 0x02, 0x00, 0x00, 0x00,
  0x01, 0x00, 0x00, 0x00, 0x30, 0x00, 0x00, 0x00, 0x8e, 0xc0, 0xff, 0xff,
  0x00, 0x00, 0x00, 0x01, 0x14, 0x00, 0x00, 0x00, 0x1c, 0x00, 0x00, 0x00,
  0x1c, 0x00, 0x00, 0x00, 0xa7, 0x00, 0x00, 0x00, 0x40, 0x00, 0x00, 0x00,
  0x02, 0x00, 0x00, 0x00, 0xff, 0xff, 0xff, 0xff, 0x30, 0x00, 0x00, 0x00,
  0xdc, 0xbf, 0xff, 0xff, 0x24, 0x00, 0x00, 0x00, 0x73, 0x65, 0x71, 0x75,
  0x65, 0x6e, 0x74, 0x69, 0x61, 0x6c, 0x5f, 0x39, 0x2f, 0x6c, 0x73, 0x74,
  0x6d, 0x5f, 0x34, 0x2f, 0x6c, 0x73, 0x74, 0x6d, 0x5f, 0x63, 0x65, 0x6c,
  0x6c, 0x2f, 0x61, 0x64, 0x64, 0x5f, 0x31, 0x36, 0x00, 0x00, 0x00, 0x00,
  0x02, 0x00, 0x00, 0x00, 0x01, 0x00, 0x00, 0x00, 0x30, 0x00, 0x00, 0x00,
  0xf2, 0xc0, 0xff, 0xff, 0x00, 0x00, 0x00, 0x01, 0x14, 0x00, 0x00, 0x00,
  0x1c, 0x00, 0x00, 0x00, 0x1c, 0x00, 0x00, 0x00, 0xa6, 0x00, 0x00, 0x00,
  0x44, 0x00, 0x00, 0x00, 0x02, 0x00, 0x00, 0x00, 0xff, 0xff, 0xff, 0xff,
  0x30, 0x00, 0x00, 0x00, 0x40, 0xc0, 0xff, 0xff, 0x28, 0x00, 0x00, 0x00,
  0x73, 0x65, 0x71, 0x75, 0x65, 0x6e, 0x74, 0x69, 0x61, 0x6c, 0x5f, 0x39,
  0x2f, 0x6c, 0x73, 0x74, 0x6d, 0x5f, 0x34, 0x2f, 0x6c, 0x73, 0x74, 0x6d,
  0x5f, 0x63, 0x65, 0x6c, 0x6c, 0x2f, 0x4d, 0x61, 0x74, 0x4d, 0x75, 0x6c,
  0x5f, 0x31, 0x37, 0x31, 0x00, 0x00, 0x00, 0x00, 0x02, 0x00, 0x00, 0x00,
  0x01, 0x00, 0x00, 0x00, 0x30, 0x00, 0x00, 0x00, 0x5a, 0xc1, 0xff, 0xff,
  0x00, 0x00, 0x00, 0x01, 0x14, 0x00, 0x00, 0x00, 0x1c, 0x00, 0x00, 0x00,
  0x1c, 0x00, 0x00, 0x00, 0xa5, 0x00, 0x00, 0x00, 0x40, 0x00, 0x00, 0x00,
  0x02, 0x00, 0x00, 0x00, 0xff, 0xff, 0xff, 0xff, 0x0c, 0x00, 0x00, 0x00,
  0xa8, 0xc0, 0xff, 0xff, 0x24, 0x00, 0x00, 0x00, 0x73, 0x65, 0x71, 0x75,
  0x65, 0x6e, 0x74, 0x69, 0x61, 0x6c, 0x5f, 0x39, 0x2f, 0x6c, 0x73, 0x74,
  0x6d, 0x5f, 0x34, 0x2f, 0x6c, 0x73, 0x74, 0x6d, 0x5f, 0x63, 0x65, 0x6c,
  0x6c, 0x2f, 0x6d, 0x75, 0x6c, 0x5f, 0x32, 0x33, 0x00, 0x00, 0x00, 0x00,
  0x02, 0x00, 0x00, 0x00, 0x01, 0x00, 0x00, 0x00, 0x0c, 0x00, 0x00, 0x00,
  0xbe, 0xc1, 0xff, 0xff, 0x00, 0x00, 0x00, 0x01, 0x14, 0x00, 0x00, 0x00,
  0x1c, 0x00, 0x00, 0x00, 0x1c, 0x00, 0x00, 0x00, 0xa4, 0x00, 0x00, 0x00,
  0x40, 0x00, 0x00, 0x00, 0x02, 0x00, 0x00, 0x00, 0xff, 0xff, 0xff, 0xff,
  0x0c, 0x00, 0x00, 0x00, 0x0c, 0xc1, 0xff, 0xff, 0x25, 0x00, 0x00, 0x00,
  0x73, 0x65, 0x71, 0x75, 0x65, 0x6e, 0x74, 0x69, 0x61, 0x6c, 0x5f, 0x39,
  0x2f, 0x6c, 0x73, 0x74, 0x6d, 0x5f, 0x34, 0x2f, 0x6c, 0x73, 0x74, 0x6d,
  0x5f, 0x63, 0x65, 0x6c, 0x6c, 0x2f, 0x54, 0x61, 0x6e, 0x68, 0x5f, 0x31,
  0x35, 0x00, 0x00, 0x00, 0x02, 0x00, 0x00, 0x00, 0x01, 0x00, 0x00, 0x00,
  0x0c, 0x00, 0x00, 0x00, 0x22, 0xc2, 0xff, 0xff, 0x00, 0x00, 0x00, 0x01,
  0x14, 0x00, 0x00, 0x00, 0x1c, 0x00, 0x00, 0x00, 0x1c, 0x00, 0x00, 0x00,
  0xa3, 0x00, 0x00, 0x00, 0x40, 0x00, 0x00, 0x00, 0x02, 0x00, 0x00, 0x00,
  0xff, 0xff, 0xff, 0xff, 0x0c, 0x00, 0x00, 0x00, 0x70, 0xc1, 0xff, 0xff,
  0x24, 0x00, 0x00, 0x00, 0x73, 0x65, 0x71, 0x75, 0x65, 0x6e, 0x74, 0x69,
  0x61, 0x6c, 0x5f, 0x39, 0x2f, 0x6c, 0x73, 0x74, 0x6d, 0x5f, 0x34, 0x2f,
  0x6c, 0x73, 0x74, 0x6d, 0x5f, 0x63, 0x65, 0x6c, 0x6c, 0x2f, 0x61, 0x64,
  0x64, 0x5f, 0x31, 0x35, 0x00, 0x00, 0x00, 0x00, 0x02, 0x00, 0x00, 0x00,
  0x01, 0x00, 0x00, 0x00, 0x0c, 0x00, 0x00, 0x00, 0x86, 0xc2, 0xff, 0xff,
  0x00, 0x00, 0x00, 0x01, 0x14, 0x00, 0x00, 0x00, 0x1c, 0x00, 0x00, 0x00,
  0x1c, 0x00, 0x00, 0x00, 0xa2, 0x00, 0x00, 0x00, 0x40, 0x00, 0x00, 0x00,
  0x02, 0x00, 0x00, 0x00, 0xff, 0xff, 0xff, 0xff, 0x0c, 0x00, 0x00, 0x00,
  0xd4, 0xc1, 0xff, 0xff, 0x24, 0x00, 0x00, 0x00, 0x73, 0x65, 0x71, 0x75,
  0x65, 0x6e, 0x74, 0x69, 0x61, 0x6c, 0x5f, 0x39, 0x2f, 0x6c, 0x73, 0x74,
  0x6d, 0x5f, 0x34, 0x2f, 0x6c, 0x73, 0x74, 0x6d, 0x5f, 0x63, 0x65, 0x6c,
  0x6c, 0x2f, 0x6d, 0x75, 0x6c, 0x5f, 0x32, 0x31, 0x00, 0x00, 0x00, 0x00,
  0x02, 0x00, 0x00, 0x00, 0x01, 0x00, 0x00, 0x00, 0x0c, 0x00, 0x00, 0x00,
  0xea, 0xc2, 0xff, 0xff, 0x00, 0x00, 0x00, 0x01, 0x14, 0x00, 0x00, 0x00,
  0x1c, 0x00, 0x00, 0x00, 0x1c, 0x00, 0x00, 0x00, 0xa1, 0x00, 0x00, 0x00,
  0x40, 0x00, 0x00, 0x00, 0x02, 0x00, 0x00, 0x00, 0xff, 0xff, 0xff, 0xff,
  0x0c, 0x00, 0x00, 0x00, 0x38, 0xc2, 0xff, 0xff, 0x24, 0x00, 0x00, 0x00,
  0x73, 0x65, 0x71, 0x75, 0x65, 0x6e, 0x74, 0x69, 0x61, 0x6c, 0x5f, 0x39,
  0x2f, 0x6c, 0x73, 0x74, 0x6d, 0x5f, 0x34, 0x2f, 0x6c, 0x73, 0x74, 0x6d,
